{
  "Ġde": 0,
  "en": 1,
  "Ġeen": 2,
  "Ġhet": 3,
  "Ġdat": 4,
  "Ġvan": 5,
  "Ġen": 6,
  "Ġin": 7,
  "Ġdie": 8,
  "Ġik": 9,
  "Ġz": 10,
  "Ġis": 11,
  "Ġop": 12,
  "Ġje": 13,
  "Ġniet": 14,
  "Ġdan": 15,
  "de": 16,
  "Ġte": 17,
  "Ġze": 18,
  "Ġvoor": 19,
  "Ġook": 20,
  "Ġmet": 21,
  "Ġv": 22,
  "ig": 23,
  "Ġdaar": 24,
  "Ġzijn": 25,
  "ij": 26,
  "Ġmaar": 27,
  "el": 28,
  "Ġwe": 29,
  "ar": 30,
  "d": 31,
  "ie": 32,
  "Ġaan": 33,
  "Ġge": 34,
  "Ġk": 35,
  "k": 36,
  "Ġwel": 37,
  "Ġom": 38,
  "Ġals": 39,
  "er": 40,
  "Ġbij": 41,
  "Ġwas": 42,
  "Ġzo": 43,
  "Ġnog": 44,
  "Ġer": 45,
  "Ġd": 46,
  "Ġof": 47,
  "je": 48,
  "eg": 49,
  "ken": 50,
  "Ġver": 51,
  "Ġover": 52,
  "ma": 53,
  "Ġwat": 54,
  "e": 55,
  "lijk": 56,
  "ik": 57,
  "Ġuit": 58,
  "st": 59,
  "Ġja": 60,
  "Ġnaar": 61,
  "Ġhe": 62,
  "Ġdus": 63,
  "Ġh": 64,
  "ven": 65,
  "ien": 66,
  "gen": 67,
  "ge": 68,
  "Ġhebben": 69,
  "et": 70,
  "Ġgew": 71,
  "t": 72,
  "Ġal": 73,
  "Ġg": 74,
  "z": 75,
  "Ġheeft": 76,
  "ja": 77,
  "in": 78,
  "w": 79,
  "Ġhij": 80,
  "end": 81,
  "est": 82,
  "an": 83,
  "Ġa": 84,
  "Ġst": 85,
  "Ġheb": 86,
  "Ġu": 87,
  "ag": 88,
  "Ġmoet": 89,
  "h": 90,
  "al": 91,
  "Ġwaar": 92,
  "het": 93,
  "Ġnu": 94,
  "Ġheel": 95,
  "Ġhad": 96,
  "ke": 97,
  "Ġtoch": 98,
  "Ġmeer": 99,
  "Ġdoor": 100,
  "der": 101,
  "ing": 102,
  "Ġden": 103,
  "Ġme": 104,
  "Ġw": 105,
  "Ġl": 106,
  "us": 107,
  "Ġeigen": 108,
  "ek": 109,
  "Ġvo": 110,
  "Ġkan": 111,
  "ent": 112,
  "Ġgaan": 113,
  "ens": 114,
  "ond": 115,
  "ch": 116,
  "dat": 117,
  "ert": 118,
  "o": 119,
  "Ġo": 120,
  "ak": 121,
  "Ġon": 122,
  "elijk": 123,
  "Ġsch": 124,
  "oon": 125,
  "acht": 126,
  "ijk": 127,
  "f": 128,
  "Ġmo": 129,
  "Ġj": 130,
  "at": 131,
  "on": 132,
  "Ġle": 133,
  "Ġbe": 134,
  "Ġaf": 135,
  "Ġhaar": 136,
  "Ġn": 137,
  "rij": 138,
  "Ġs": 139,
  "Ġzou": 140,
  "Ġveel": 141,
  "eren": 142,
  "Ġonder": 143,
  "ze": 144,
  "em": 145,
  "Ġwant": 146,
  "Ġjaar": 147,
  "ende": 148,
  "Ġbo": 149,
  "Ġgeen": 150,
  "eld": 151,
  "v": 152,
  "Ġmensen": 153,
  "kt": 154,
  "am": 155,
  "i": 156,
  "Ġzich": 157,
  "ige": 158,
  "ers": 159,
  "maal": 160,
  "Ġtwee": 161,
  "Ġgaat": 162,
  "Ġworden": 163,
  "da": 164,
  "Ġkunnen": 165,
  "le": 166,
  "Ġda": 167,
  "Ġm": 168,
  "Ġi": 169,
  "Ġwordt": 170,
  "it": 171,
  "ant": 172,
  "ft": 173,
  "ste": 174,
  "Ġgez": 175,
  "Ġt": 176,
  "u": 177,
  "se": 178,
  "Ġwij": 179,
  "ad": 180,
  "Ġvol": 181,
  "te": 182,
  "Ġdit": 183,
  "Ġweer": 184,
  "Ġalle": 185,
  "Ġtot": 186,
  "Ġtoen": 187,
  "Ġgoed": 188,
  "a": 189,
  "Ġhele": 190,
  "Ġhier": 191,
  "Ġdoen": 192,
  "ingen": 193,
  "om": 194,
  "Ġwil": 195,
  "Ġben": 196,
  "Ġnou": 197,
  "op": 198,
  "we": 199,
  "heid": 200,
  "Ġhoe": 201,
  "erd": 202,
  "Ġecht": 203,
  "ur": 204,
  "Ġma": 205,
  "elen": 206,
  "Ġb": 207,
  "Ġmijn": 208,
  "Ġmij": 209,
  "Ġiets": 210,
  "jes": 211,
  "Ġhem": 212,
  "Ġne": 213,
  "ort": 214,
  "een": 215,
  "Ġbet": 216,
  "Ġmoeten": 217,
  "Ġtegen": 218,
  "s": 219,
  "es": 220,
  "zen": 221,
  "ard": 222,
  "Ġie": 223,
  "den": 224,
  "Ġzn": 225,
  "re": 226,
  "Ġnatuur": 227,
  "Ġandere": 228,
  "rie": 229,
  "oor": 230,
  "Ġe": 231,
  "Ġzelf": 232,
  "ten": 233,
  "ver": 234,
  "ijn": 235,
  "ep": 236,
  "icht": 237,
  "voor": 238,
  "m": 239,
  "ier": 240,
  "Ġre": 241,
  "als": 242,
  "vo": 243,
  "omen": 244,
  "uk": 245,
  "ouden": 246,
  "l": 247,
  "Ġaltijd": 248,
  "g": 249,
  "Ġhun": 250,
  "be": 251,
  "ies": 252,
  "Ġbed": 253,
  "eder": 254,
  "nou": 255,
  "Ġna": 256,
  "atie": 257,
  "Ġtijd": 258,
  "of": 259,
  "af": 260,
  "Ġman": 261,
  "Ġno": 262,
  "b": 263,
  "he": 264,
  "Ġvind": 265,
  "Ġbeet": 266,
  "ord": 267,
  "Ġmee": 268,
  "n": 269,
  "p": 270,
  "ed": 271,
  "Ġons": 272,
  "ro": 273,
  "Ġto": 274,
  "Ġzal": 275,
  "Ġkeer": 276,
  "Ġdeze": 277,
  "int": 278,
  "Ġwaren": 279,
  "ve": 280,
  "uit": 281,
  "Ġdo": 282,
  "Ġkomen": 283,
  "Ġeven": 284,
  "Ġomdat": 285,
  "is": 286,
  "cht": 287,
  "Ġgel": 288,
  "Ġkrij": 289,
  "ische": 290,
  "Ġkw": 291,
  "Ġns": 292,
  "Ġkomt": 293,
  "art": 294,
  "bij": 295,
  "egt": 296,
  "ou": 297,
  "Ġmaken": 298,
  "ere": 299,
  "Ġblij": 300,
  "kel": 301,
  "wij": 302,
  "ist": 303,
  "Ġkind": 304,
  "Ġalleen": 305,
  "Ġzij": 306,
  "Ġvier": 307,
  "Ġlaat": 308,
  "ets": 309,
  "Ġeerste": 310,
  "die": 311,
  "Ġtwe": 312,
  "els": 313,
  "onder": 314,
  "want": 315,
  "wa": 316,
  "lo": 317,
  "Ġgek": 318,
  "and": 319,
  "uid": 320,
  "Ġont": 321,
  "beeld": 322,
  "Ġbeg": 323,
  "Ġwa": 324,
  "Ġr": 325,
  "Ġkon": 326,
  "Ġwer": 327,
  "Ġhebt": 328,
  "iet": 329,
  "Ġsta": 330,
  "pen": 331,
  "ind": 332,
  "Ġbest": 333,
  "Ġwerd": 334,
  "iek": 335,
  "Ġgro": 336,
  "elt": 337,
  "Ġachter": 338,
  "Ġsp": 339,
  "Ġgeh": 340,
  "onden": 341,
  "oud": 342,
  "ef": 343,
  "Ġneg": 344,
  "Ġges": 345,
  "Ġstaat": 346,
  "itten": 347,
  "led": 348,
  "oit": 349,
  "Ġterug": 350,
  "og": 351,
  "Ġste": 352,
  "Ġmiss": 353,
  "eken": 354,
  "Ġwo": 355,
  "Ġweg": 356,
  "open": 357,
  "js": 358,
  "id": 359,
  "Ġnederland": 360,
  "aren": 361,
  "emand": 362,
  "na": 363,
  "aat": 364,
  "Ġwet": 365,
  "iz": 366,
  "emen": 367,
  "eden": 368,
  "Ġeer": 369,
  "la": 370,
  "Ġtoe": 371,
  "Ġp": 372,
  "Ġhand": 373,
  "adden": 374,
  "Ġzien": 375,
  "Ġdu": 376,
  "Ġreg": 377,
  "aken": 378,
  "Ġgrote": 379,
  "Ġerg": 380,
  "ter": 381,
  "nee": 382,
  "eling": 383,
  "Ġga": 384,
  "ast": 385,
  "ap": 386,
  "Ġjong": 387,
  "ader": 388,
  "ite": 389,
  "Ġgeb": 390,
  "Ġdag": 391,
  "Ġbinnen": 392,
  "ans": 393,
  "ede": 394,
  "nen": 395,
  "Ġtussen": 396,
  "akt": 397,
  "Ġnet": 398,
  "Ġvert": 399,
  "Ġland": 400,
  "eker": 401,
  "Ġgen": 402,
  "dan": 403,
  "od": 404,
  "as": 405,
  "aten": 406,
  "Ġged": 407,
  "orden": 408,
  "ker": 409,
  "Ġmoment": 410,
  "uren": 411,
  "Ġmen": 412,
  "aan": 413,
  "Ġso": 414,
  "gens": 415,
  "vol": 416,
  "van": 417,
  "over": 418,
  "Ġanders": 419,
  "ars": 420,
  "elijke": 421,
  "Ġmn": 422,
  "zelf": 423,
  "king": 424,
  "org": 425,
  "isch": 426,
  "to": 427,
  "j": 428,
  "Ġbez": 429,
  "Ġwillen": 430,
  "ene": 431,
  "Ġzoals": 432,
  "oren": 433,
  "Ġpr": 434,
  "Ġwerk": 435,
  "ied": 436,
  "ief": 437,
  "Ġke": 438,
  "ister": 439,
  "wer": 440,
  "ra": 441,
  "Ġalles": 442,
  "Ġhuis": 443,
  "Ġbel": 444,
  "Ġlang": 445,
  "Ġro": 446,
  "Ġuur": 447,
  "ering": 448,
  "val": 449,
  "Ġlaten": 450,
  "Ġbelang": 451,
  "anda": 452,
  "Ġbes": 453,
  "uw": 454,
  "Ġvra": 455,
  "ee": 456,
  "eda": 457,
  "Ġbr": 458,
  "Ġkijken": 459,
  "Ġlij": 460,
  "Ġvrij": 461,
  "Ġplaats": 462,
  "im": 463,
  "ings": 464,
  "or": 465,
  "Ġging": 466,
  "Ġbew": 467,
  "Ġnieuwe": 468,
  "eds": 469,
  "uur": 470,
  "orgen": 471,
  "Ġher": 472,
  "amer": 473,
  "Ġtw": 474,
  "Ġgroot": 475,
  "Ġonze": 476,
  "ullen": 477,
  "Ġho": 478,
  "Ġaantal": 479,
  "Ġeens": 480,
  "wen": 481,
  "aal": 482,
  "baar": 483,
  "rijk": 484,
  "land": 485,
  "Ġpolit": 486,
  "ragen": 487,
  "zo": 488,
  "Ġleven": 489,
  "achten": 490,
  "bo": 491,
  "Ġelkaar": 492,
  "igen": 493,
  "Ġpaar": 494,
  "Ġgest": 495,
  "emaakt": 496,
  "ull": 497,
  "Ġter": 498,
  "woord": 499,
  "il": 500,
  "os": 501,
  "Ġweek": 502,
  "its": 503,
  "Ġbuiten": 504,
  "Ġstr": 505,
  "gt": 506,
  "zoek": 507,
  "Ġmag": 508,
  "Ġzie": 509,
  "Ġsamen": 510,
  "ew": 511,
  "Ġoud": 512,
  "Ġkunt": 513,
  "iteit": 514,
  "Ġni": 515,
  "Ġkom": 516,
  "Ġbegin": 517,
  "Ġva": 518,
  "ks": 519,
  "Ġleer": 520,
  "Ġminister": 521,
  "Ġsom": 522,
  "Ġhoof": 523,
  "ats": 524,
  "Ġkun": 525,
  "reg": 526,
  "Ġschool": 527,
  "egen": 528,
  "Ġmin": 529,
  "leg": 530,
  "allen": 531,
  "Ġfe": 532,
  "elling": 533,
  "wel": 534,
  "dag": 535,
  "wat": 536,
  "Ġgev": 537,
  "Ġrond": 538,
  "ach": 539,
  "mer": 540,
  "ald": 541,
  "Ġing": 542,
  "Ġgr": 543,
  "ree": 544,
  "oe": 545,
  "lie": 546,
  "Ġgeld": 547,
  "pre": 548,
  "Ġander": 549,
  "ale": 550,
  "Ġgra": 551,
  "erk": 552,
  "edere": 553,
  "Ġhon": 554,
  "pa": 555,
  "ieren": 556,
  "Ġgo": 557,
  "Ġha": 558,
  "Ġmil": 559,
  "Ġzw": 560,
  "ul": 561,
  "Ġdr": 562,
  "erde": 563,
  "pro": 564,
  "lij": 565,
  "oral": 566,
  "Ġwereld": 567,
  "ank": 568,
  "Ġve": 569,
  "orig": 570,
  "met": 571,
  "orm": 572,
  "Ġbek": 573,
  "men": 574,
  "ander": 575,
  "Ġf": 576,
  "ijd": 577,
  "mo": 578,
  "Ġuw": 579,
  "iding": 580,
  "stand": 581,
  "Ġou": 582,
  "Ġmogelijk": 583,
  "Ġant": 584,
  "ha": 585,
  "urt": 586,
  "Ġbre": 587,
  "un": 588,
  "ne": 589,
  "Ġgeme": 590,
  "Ġverw": 591,
  "igt": 592,
  "Ġleuk": 593,
  "Ġhu": 594,
  "Ġra": 595,
  "Ġmind": 596,
  "Ġder": 597,
  "ok": 598,
  "ut": 599,
  "arm": 600,
  "Ġvinden": 601,
  "Ġvak": 602,
  "ug": 603,
  "Ġhoog": 604,
  "agen": 605,
  "Ġbent": 606,
  "Ġru": 607,
  "enen": 608,
  "za": 609,
  "ogen": 610,
  "eil": 611,
  "ga": 612,
  "ger": 613,
  "ook": 614,
  "ot": 615,
  "iks": 616,
  "Ġvast": 617,
  "Ġhal": 618,
  "Ġopen": 619,
  "pe": 620,
  "Ġverd": 621,
  "pt": 622,
  "Ġvrouw": 623,
  "iss": 624,
  "kom": 625,
  "ho": 626,
  "Ġrij": 627,
  "sta": 628,
  "app": 629,
  "Ġten": 630,
  "get": 631,
  "ucht": 632,
  "ellen": 633,
  "Ġkr": 634,
  "Ġc": 635,
  "amen": 636,
  "ang": 637,
  "Ġzat": 638,
  "arna": 639,
  "Ġvers": 640,
  "me": 641,
  "oh": 642,
  "opt": 643,
  "ids": 644,
  "Ġgesch": 645,
  "uis": 646,
  "Ġel": 647,
  "Ġwie": 648,
  "nu": 649,
  "Ġnam": 650,
  "ol": 651,
  "Ġnod": 652,
  "ber": 653,
  "Ġget": 654,
  "red": 655,
  "Ġwater": 656,
  "Ġlie": 657,
  "ange": 658,
  "Ġper": 659,
  "au": 660,
  "ong": 661,
  "va": 662,
  "eten": 663,
  "Ġjou": 664,
  "Ġbeh": 665,
  "ko": 666,
  "Ġbesch": 667,
  "midd": 668,
  "elf": 669,
  "Ġdi": 670,
  "Ġthuis": 671,
  "erv": 672,
  "Ġsl": 673,
  "ove": 674,
  "akte": 675,
  "Ġkl": 676,
  "ocht": 677,
  "eu": 678,
  "Ġkn": 679,
  "Ġbro": 680,
  "Ġzonder": 681,
  "Ġpro": 682,
  "ensch": 683,
  "du": 684,
  "Ġsnel": 685,
  "Ġsle": 686,
  "Ġju": 687,
  "ip": 688,
  "Ġav": 689,
  "ia": 690,
  "Ġmidd": 691,
  "gel": 692,
  "Ġet": 693,
  "Ġhalf": 694,
  "Ġbl": 695,
  "Ġach": 696,
  "Ġgele": 697,
  "Ġgebru": 698,
  "appen": 699,
  "ri": 700,
  "zet": 701,
  "Ġmoo": 702,
  "Ġdagen": 703,
  "Ġverg": 704,
  "ins": 705,
  "Ġverv": 706,
  "ges": 707,
  "Ġsla": 708,
  "Ġgem": 709,
  "Ġ": 710,
  "fg": 711,
  "rek": 712,
  "rouw": 713,
  "Ġple": 714,
  "Ġvriend": 715,
  "gende": 716,
  "licht": 717,
  "elden": 718,
  "ussen": 719,
  "lands": 720,
  "ika": 721,
  "ikt": 722,
  "Ġlo": 723,
  "ijke": 724,
  "Ġverb": 725,
  "Ġbal": 726,
  "enn": 727,
  "urd": 728,
  "rok": 729,
  "Ġhen": 730,
  "Ġta": 731,
  "per": 732,
  "Ġred": 733,
  "Ġprocent": 734,
  "ont": 735,
  "anden": 736,
  "Ġpas": 737,
  "Ġtre": 738,
  "Ġversch": 739,
  "av": 740,
  "Ġblo": 741,
  "Ġverschill": 742,
  "Ġpl": 743,
  "anse": 744,
  "sten": 745,
  "lijke": 746,
  "Ġzag": 747,
  "oi": 748,
  "Ġspe": 749,
  "itter": 750,
  "Ġamer": 751,
  "Ġerv": 752,
  "ine": 753,
  "lingen": 754,
  "iken": 755,
  "Ġpri": 756,
  "ruk": 757,
  "bre": 758,
  "Ġstad": 759,
  "oo": 760,
  "Ġkleine": 761,
  "Ġleg": 762,
  "lik": 763,
  "Ġfrank": 764,
  "eng": 765,
  "Ġpart": 766,
  "etten": 767,
  "eger": 768,
  "Ġide": 769,
  "ngen": 770,
  "Ġact": 771,
  "env": 772,
  "iden": 773,
  "onnen": 774,
  "eh": 775,
  "ts": 776,
  "bou": 777,
  "Ġpers": 778,
  "Ġwerden": 779,
  "Ġko": 780,
  "alen": 781,
  "Ġgee": 782,
  "Ġdoe": 783,
  "ese": 784,
  "Ġklein": 785,
  "izen": 786,
  "ple": 787,
  "Ġkle": 788,
  "eme": 789,
  "Ġger": 790,
  "sch": 791,
  "Ġka": 792,
  "hoe": 793,
  "ust": 794,
  "uld": 795,
  "Ġlater": 796,
  "hand": 797,
  "ester": 798,
  "ren": 799,
  "Ġar": 800,
  "lag": 801,
  "Ġind": 802,
  "man": 803,
  "Ġproble": 804,
  "Ġval": 805,
  "Ġbu": 806,
  "Ġza": 807,
  "Ġwon": 808,
  "jo": 809,
  "wd": 810,
  "Ġgul": 811,
  "Ġgod": 812,
  "Ġdood": 813,
  "age": 814,
  "Ġlig": 815,
  "Ġscho": 816,
  "Ġprec": 817,
  "Ġor": 818,
  "Ġverk": 819,
  "erg": 820,
  "unt": 821,
  "era": 822,
  "ru": 823,
  "Ġfr": 824,
  "pr": 825,
  "lee": 826,
  "ving": 827,
  "Ġbere": 828,
  "Ġdra": 829,
  "nie": 830,
  "Ġmens": 831,
  "Ġdon": 832,
  "ande": 833,
  "dr": 834,
  "anneer": 835,
  "eft": 836,
  "Ġtrou": 837,
  "iter": 838,
  "stellen": 839,
  "ai": 840,
  "Ġvia": 841,
  "Ġnach": 842,
  "wi": 843,
  "ieve": 844,
  "Ġble": 845,
  "Ġmed": 846,
  "lot": 847,
  "Ġprobe": 848,
  "enis": 849,
  "Ġnie": 850,
  "kr": 851,
  "Ġgl": 852,
  "Ġech": 853,
  "Ġrecht": 854,
  "Ġauto": 855,
  "Ġproblem": 856,
  "alt": 857,
  "Ġpa": 858,
  "ero": 859,
  "ster": 860,
  "ena": 861,
  "Ġdirect": 862,
  "io": 863,
  "Ġla": 864,
  "uss": 865,
  "ijken": 866,
  "ode": 867,
  "ink": 868,
  "ting": 869,
  "Ġlu": 870,
  "enden": 871,
  "alf": 872,
  "Ġhoop": 873,
  "emd": 874,
  "tr": 875,
  "Ġpunt": 876,
  "Ġvl": 877,
  "Ġmar": 878,
  "Ġricht": 879,
  "Ġdeed": 880,
  "hal": 881,
  "Ġafs": 882,
  "anten": 883,
  "Ġcent": 884,
  "uten": 885,
  "alle": 886,
  "ega": 887,
  "ann": 888,
  "pl": 889,
  "Ġrust": 890,
  "Ġnorm": 891,
  "anger": 892,
  "Ġlangs": 893,
  "inds": 894,
  "old": 895,
  "ost": 896,
  "weg": 897,
  "r": 898,
  "ern": 899,
  "ide": 900,
  "Ġspr": 901,
  "atu": 902,
  "Ġteg": 903,
  "Ġeng": 904,
  "miss": 905,
  "Ġli": 906,
  "Ġbrand": 907,
  "chter": 908,
  "aks": 909,
  "dit": 910,
  "Ġspre": 911,
  "Ġsche": 912,
  "amp": 913,
  "Ġaller": 914,
  "Ġzest": 915,
  "Ġtro": 916,
  "ente": 917,
  "kte": 918,
  "eer": 919,
  "Ġkort": 920,
  "ds": 921,
  "out": 922,
  "min": 923,
  "iger": 924,
  "Ġgep": 925,
  "bal": 926,
  "Ġpak": 927,
  "Ġnaam": 928,
  "Ġles": 929,
  "iele": 930,
  "ors": 931,
  "ater": 932,
  "vers": 933,
  "ah": 934,
  "Ġlief": 935,
  "Ġverz": 936,
  "Ġpar": 937,
  "Ġalg": 938,
  "Ġmuz": 939,
  "isten": 940,
  "eter": 941,
  "bracht": 942,
  "werk": 943,
  "idden": 944,
  "vens": 945,
  "Ġhart": 946,
  "ue": 947,
  "Ġcolleg": 948,
  "Ġamsterdam": 949,
  "gest": 950,
  "iten": 951,
  "Ġvrouwen": 952,
  "Ġmev": 953,
  "arin": 954,
  "oord": 955,
  "ade": 956,
  "log": 957,
  "chts": 958,
  "Ġtu": 959,
  "Ġba": 960,
  "Ġklas": 961,
  "geb": 962,
  "Ġkla": 963,
  "Ġrug": 964,
  "ure": 965,
  "th": 966,
  "Ġevent": 967,
  "wo": 968,
  "Ġstem": 969,
  "ante": 970,
  "issen": 971,
  "Ġmeter": 972,
  "let": 973,
  "Ġwed": 974,
  "Ġmannen": 975,
  "assen": 976,
  "Ġtent": 977,
  "arden": 978,
  "chap": 979,
  "arde": 980,
  "Ġtele": 981,
  "sp": 982,
  "Ġstellen": 983,
  "innen": 984,
  "iel": 985,
  "aring": 986,
  "Ġsn": 987,
  "Ġvu": 988,
  "Ġlag": 989,
  "agt": 990,
  "ged": 991,
  "bare": 992,
  "elo": 993,
  "Ġoh": 994,
  "gew": 995,
  "Ġrest": 996,
  "kaar": 997,
  "vang": 998,
  "Ġsm": 999,
  "Ġhang": 1000,
  "uiten": 1001,
  "oot": 1002,
  "gie": 1003,
  "uch": 1004,
  "lei": 1005,
  "aar": 1006,
  "angen": 1007,
  "event": 1008,
  "chten": 1009,
  "bel": 1010,
  "ela": 1011,
  "Ġjan": 1012,
  "ng": 1013,
  "onds": 1014,
  "all": 1015,
  "Ġfamil": 1016,
  "Ġlange": 1017,
  "Ġfl": 1018,
  "Ġelk": 1019,
  "gr": 1020,
  "itz": 1021,
  "ff": 1022,
  "kl": 1023,
  "edu": 1024,
  "iv": 1025,
  "Ġstand": 1026,
  "if": 1027,
  "Ġkil": 1028,
  "Ġlast": 1029,
  "Ġdez": 1030,
  "Ġtr": 1031,
  "kening": 1032,
  "vel": 1033,
  "este": 1034,
  "Ġhard": 1035,
  "Ġkop": 1036,
  "ork": 1037,
  "Ġstud": 1038,
  "inn": 1039,
  "ka": 1040,
  "Ġeurop": 1041,
  "Ġkans": 1042,
  "Ġwit": 1043,
  "ichten": 1044,
  "room": 1045,
  "Ġspec": 1046,
  "und": 1047,
  "ette": 1048,
  "Ġelf": 1049,
  "Ġfi": 1050,
  "tt": 1051,
  "Ġmis": 1052,
  "zing": 1053,
  "ble": 1054,
  "Ġbou": 1055,
  "rik": 1056,
  "erm": 1057,
  "Ġmark": 1058,
  "Ġliter": 1059,
  "one": 1060,
  "ele": 1061,
  "Ġalso": 1062,
  "apt": 1063,
  "bed": 1064,
  "Ġsport": 1065,
  "ager": 1066,
  "off": 1067,
  "achte": 1068,
  "Ġbelg": 1069,
  "ez": 1070,
  "bl": 1071,
  "ba": 1072,
  "Ġber": 1073,
  "aven": 1074,
  "ara": 1075,
  "ders": 1076,
  "Ġcomm": 1077,
  "reek": 1078,
  "Ġvlak": 1079,
  "aden": 1080,
  "Ġbeste": 1081,
  "onde": 1082,
  "wal": 1083,
  "band": 1084,
  "che": 1085,
  "sl": 1086,
  "ise": 1087,
  "Ġbev": 1088,
  "Ġbele": 1089,
  "do": 1090,
  "ield": 1091,
  "Ġgoede": 1092,
  "kk": 1093,
  "mat": 1094,
  "del": 1095,
  "eur": 1096,
  "vent": 1097,
  "fe": 1098,
  "Ġlekker": 1099,
  "aris": 1100,
  "Ġtrek": 1101,
  "lagen": 1102,
  "Ġwin": 1103,
  "zig": 1104,
  "Ġfilm": 1105,
  "Ġanderen": 1106,
  "Ġker": 1107,
  "Ġbank": 1108,
  "Ġstap": 1109,
  "inder": 1110,
  "Ġrol": 1111,
  "oten": 1112,
  "oen": 1113,
  "go": 1114,
  "Ġgebruik": 1115,
  "legen": 1116,
  "Ġkennen": 1117,
  "Ġmak": 1118,
  "Ġthe": 1119,
  "urs": 1120,
  "Ġmooie": 1121,
  "Ġmond": 1122,
  "Ġmer": 1123,
  "wik": 1124,
  "ieu": 1125,
  "lem": 1126,
  "Ġjo": 1127,
  "Ġzaten": 1128,
  "idd": 1129,
  "Ġkost": 1130,
  "olen": 1131,
  "Ġwarm": 1132,
  "orp": 1133,
  "igh": 1134,
  "nt": 1135,
  "ett": 1136,
  "Ġwink": 1137,
  "hu": 1138,
  "str": 1139,
  "door": 1140,
  "Ġspel": 1141,
  "Ġnum": 1142,
  "Ġsto": 1143,
  "Ġproduct": 1144,
  "bru": 1145,
  "Ġchrist": 1146,
  "inner": 1147,
  "Ġbos": 1148,
  "Ġster": 1149,
  "pla": 1150,
  "Ġfout": 1151,
  "Ġmot": 1152,
  "werp": 1153,
  "Ġnad": 1154,
  "Ġstil": 1155,
  "Ġposit": 1156,
  "praak": 1157,
  "Ġextra": 1158,
  "inen": 1159,
  "Ġlos": 1160,
  "ell": 1161,
  "ari": 1162,
  "ic": 1163,
  "Ġplan": 1164,
  "Ġveren": 1165,
  "ws": 1166,
  "ev": 1167,
  "act": 1168,
  "Ġeu": 1169,
  "Ġwest": 1170,
  "Ġken": 1171,
  "jar": 1172,
  "Ġbuurt": 1173,
  "Ġsitu": 1174,
  "Ġgang": 1175,
  "iste": 1176,
  "Ġhelf": 1177,
  "aire": 1178,
  "Ġad": 1179,
  "Ġpub": 1180,
  "Ġinteress": 1181,
  "heel": 1182,
  "orz": 1183,
  "ei": 1184,
  "ennis": 1185,
  "ukt": 1186,
  "Ġzak": 1187,
  "les": 1188,
  "ometer": 1189,
  "Ġan": 1190,
  "aling": 1191,
  "ropa": 1192,
  "Ġcontact": 1193,
  "Ġak": 1194,
  "uh": 1195,
  "Ġmeisje": 1196,
  "ake": 1197,
  "net": 1198,
  "ser": 1199,
  "air": 1200,
  "Ġproject": 1201,
  "Ġintern": 1202,
  "recht": 1203,
  "y": 1204,
  "oge": 1205,
  "Ġeuro": 1206,
  "ement": 1207,
  "foon": 1208,
  "orte": 1209,
  "child": 1210,
  "ikk": 1211,
  "enz": 1212,
  "uz": 1213,
  "ulp": 1214,
  "Ġbasis": 1215,
  "rou": 1216,
  "rag": 1217,
  "rum": 1218,
  "unde": 1219,
  "iers": 1220,
  "Ġzu": 1221,
  "Ġwilt": 1222,
  "lang": 1223,
  "icha": 1224,
  "br": 1225,
  "Ġnood": 1226,
  "the": 1227,
  "stra": 1228,
  "Ġein": 1229,
  "ware": 1230,
  "Ġveil": 1231,
  "Ġnieu": 1232,
  "ss": 1233,
  "lement": 1234,
  "ams": 1235,
  "Ġinformatie": 1236,
  "ening": 1237,
  "Ġcult": 1238,
  "Ġdiscuss": 1239,
  "osten": 1240,
  "arts": 1241,
  "Ġdik": 1242,
  "Ġpun": 1243,
  "ame": 1244,
  "Ġeconom": 1245,
  "Ġweekend": 1246,
  "Ġas": 1247,
  "oven": 1248,
  "Ġperi": 1249,
  "gend": 1250,
  "Ġwand": 1251,
  "ekt": 1252,
  "Ġnau": 1253,
  "Ġstri": 1254,
  "Ġch": 1255,
  "Ġbeta": 1256,
  "ient": 1257,
  "ieten": 1258,
  "Ġprakt": 1259,
  "Ġunivers": 1260,
  "con": 1261,
  "lat": 1262,
  "Ġeff": 1263,
  "ovo": 1264,
  "zer": 1265,
  "elp": 1266,
  "Ġding": 1267,
  "Ġloop": 1268,
  "Ġfinanc": 1269,
  "Ġarbe": 1270,
  "isme": 1271,
  "Ġstre": 1272,
  "Ġplo": 1273,
  "Ġdro": 1274,
  "ill": 1275,
  "ging": 1276,
  "ns": 1277,
  "Ġtechn": 1278,
  "ons": 1279,
  "orde": 1280,
  "ys": 1281,
  "Ġsociale": 1282,
  "Ġinv": 1283,
  "Ġpap": 1284,
  "Ġbrief": 1285,
  "Ġverm": 1286,
  "Ġpo": 1287,
  "olu": 1288,
  "Ġhog": 1289,
  "Ġopt": 1290,
  "Ġdri": 1291,
  "Ġslo": 1292,
  "Ġkap": 1293,
  "Ġabs": 1294,
  "ille": 1295,
  "iser": 1296,
  "ler": 1297,
  "arn": 1298,
  "Ġsam": 1299,
  "orn": 1300,
  "ensen": 1301,
  "anz": 1302,
  "Ġstart": 1303,
  "Ġpass": 1304,
  "Ġpresident": 1305,
  "Ġcar": 1306,
  "Ġvis": 1307,
  "Ġhelp": 1308,
  "owel": 1309,
  "Ġdoch": 1310,
  "Ġtelevis": 1311,
  "so": 1312,
  "oden": 1313,
  "Ġtop": 1314,
  "ude": 1315,
  "fd": 1316,
  "Ġgren": 1317,
  "eel": 1318,
  "uele": 1319,
  "lopen": 1320,
  "Ġamb": 1321,
  "asting": 1322,
  "Ġwild": 1323,
  "Ġoch": 1324,
  "Ġspan": 1325,
  "Ġtek": 1326,
  "lev": 1327,
  "kie": 1328,
  "ansen": 1329,
  "pel": 1330,
  "sh": 1331,
  "ui": 1332,
  "rom": 1333,
  "Ġam": 1334,
  "Ġbang": 1335,
  "Ġslap": 1336,
  "cent": 1337,
  "aste": 1338,
  "Ġkamp": 1339,
  "Ġbor": 1340,
  "ags": 1341,
  "Ġberg": 1342,
  "allee": 1343,
  "dd": 1344,
  "ult": 1345,
  "organ": 1346,
  "ning": 1347,
  "Ġstudent": 1348,
  "Ġdeb": 1349,
  "Ġtekst": 1350,
  "Ġtv": 1351,
  "ck": 1352,
  "gro": 1353,
  "Ġcon": 1354,
  "Ġniveau": 1355,
  "Ġname": 1356,
  "Ġgere": 1357,
  "Ġhar": 1358,
  "Ġnen": 1359,
  "fr": 1360,
  "tu": 1361,
  "Ġdur": 1362,
  "ded": 1363,
  "bere": 1364,
  "ica": 1365,
  "wie": 1366,
  "gang": 1367,
  "Ġfran": 1368,
  "oken": 1369,
  "Ġbus": 1370,
  "eland": 1371,
  "c": 1372,
  "oma": 1373,
  "Ġstop": 1374,
  "ffen": 1375,
  "Ġvern": 1376,
  "atten": 1377,
  "olog": 1378,
  "gesch": 1379,
  "isk": 1380,
  "Ġterm": 1381,
  "Ġdeg": 1382,
  "abinet": 1383,
  "bond": 1384,
  "Ġorganis": 1385,
  "ab": 1386,
  "Ġband": 1387,
  "Ġdrink": 1388,
  "Ġgene": 1389,
  "Ġenorm": 1390,
  "Ġfil": 1391,
  "um": 1392,
  "kw": 1393,
  "ass": 1394,
  "nd": 1395,
  "dst": 1396,
  "Ġmerk": 1397,
  "bew": 1398,
  "enge": 1399,
  "omer": 1400,
  "Ġpe": 1401,
  "vl": 1402,
  "lop": 1403,
  "Ġgast": 1404,
  "fin": 1405,
  "sg": 1406,
  "Ġkent": 1407,
  "fer": 1408,
  "Ġtur": 1409,
  "wt": 1410,
  "iat": 1411,
  "Ġdre": 1412,
  "Ġbehand": 1413,
  "Ġwind": 1414,
  "Ġgri": 1415,
  "ath": 1416,
  "Ġzwarte": 1417,
  "arten": 1418,
  "chte": 1419,
  "ose": 1420,
  "ling": 1421,
  "ule": 1422,
  "ub": 1423,
  "Ġcl": 1424,
  "res": 1425,
  "Ġrel": 1426,
  "eding": 1427,
  "Ġstat": 1428,
  "Ġinternet": 1429,
  "Ġdel": 1430,
  "Ġdans": 1431,
  "Ġwi": 1432,
  "och": 1433,
  "no": 1434,
  "Ġprogramma": 1435,
  "haar": 1436,
  "Ġvero": 1437,
  "ereg": 1438,
  "ich": 1439,
  "Ġinst": 1440,
  "Ġrotterdam": 1441,
  "pak": 1442,
  "burg": 1443,
  "Ġcomputer": 1444,
  "ov": 1445,
  "uze": 1446,
  "even": 1447,
  "ennen": 1448,
  "eb": 1449,
  "bes": 1450,
  "Ġmon": 1451,
  "vest": 1452,
  "Ġmu": 1453,
  "are": 1454,
  "Ġverr": 1455,
  "Ġdank": 1456,
  "Ġslot": 1457,
  "Ġvr": 1458,
  "uke": 1459,
  "Ġviel": 1460,
  "itle": 1461,
  "Ġthem": 1462,
  "Ġmacht": 1463,
  "link": 1464,
  "roe": 1465,
  "Ġkam": 1466,
  "pte": 1467,
  "Ġpersone": 1468,
  "Ġbas": 1469,
  "Ġbi": 1470,
  "loss": 1471,
  "igers": 1472,
  "Ġart": 1473,
  "Ġlever": 1474,
  "Ġbar": 1475,
  "dt": 1476,
  "berg": 1477,
  "plan": 1478,
  "Ġbeide": 1479,
  "Ġenorme": 1480,
  "Ġinh": 1481,
  "issing": 1482,
  "Ġklass": 1483,
  "Ġresult": 1484,
  "cheid": 1485,
  "Ġpost": 1486,
  "Ġmeisjes": 1487,
  "ph": 1488,
  "ech": 1489,
  "ring": 1490,
  "urg": 1491,
  "lever": 1492,
  "Ġlog": 1493,
  "Ġbak": 1494,
  "omm": 1495,
  "tot": 1496,
  "else": 1497,
  "ina": 1498,
  "inter": 1499,
  "Ġse": 1500,
  "was": 1501,
  "ichte": 1502,
  "best": 1503,
  "ud": 1504,
  "ever": 1505,
  "nde": 1506,
  "Ġradio": 1507,
  "Ġspree": 1508,
  "Ġeffect": 1509,
  "loop": 1510,
  "Ġdw": 1511,
  "fen": 1512,
  "Ġoffic": 1513,
  "aker": 1514,
  "Ġzus": 1515,
  "Ġpale": 1516,
  "Ġij": 1517,
  "Ġreact": 1518,
  "ije": 1519,
  "Ġzoek": 1520,
  "Ġdok": 1521,
  "jk": 1522,
  "abel": 1523,
  "opp": 1524,
  "kers": 1525,
  "kle": 1526,
  "ben": 1527,
  "chool": 1528,
  "elle": 1529,
  "Ġjust": 1530,
  "ipe": 1531,
  "zw": 1532,
  "ood": 1533,
  "Ġboom": 1534,
  "len": 1535,
  "Ġword": 1536,
  "tk": 1537,
  "Ġware": 1538,
  "azen": 1539,
  "mm": 1540,
  "west": 1541,
  "ming": 1542,
  "kan": 1543,
  "wan": 1544,
  "Ġern": 1545,
  "Ġinter": 1546,
  "secret": 1547,
  "Ġhi": 1548,
  "Ġkosten": 1549,
  "iale": 1550,
  "Ġspa": 1551,
  "Ġtrap": 1552,
  "kn": 1553,
  "Ġgef": 1554,
  "ologie": 1555,
  "Ġreal": 1556,
  "ilen": 1557,
  "Ġnation": 1558,
  "anje": 1559,
  "zie": 1560,
  "zek": 1561,
  "Ġtit": 1562,
  "vro": 1563,
  "uff": 1564,
  "Ġkrit": 1565,
  "eks": 1566,
  "Ġmez": 1567,
  "bank": 1568,
  "span": 1569,
  "Ġine": 1570,
  "tel": 1571,
  "Ġburg": 1572,
  "Ġrode": 1573,
  "Ġmel": 1574,
  "ugg": 1575,
  "ima": 1576,
  "aging": 1577,
  "Ġah": 1578,
  "Ġblok": 1579,
  "Ġton": 1580,
  "orst": 1581,
  "vat": 1582,
  "Ġtand": 1583,
  "Ġrom": 1584,
  "Ġopp": 1585,
  "Ġded": 1586,
  "orge": 1587,
  "Ġtel": 1588,
  "Ġangst": 1589,
  "win": 1590,
  "Ġsyst": 1591,
  "oms": 1592,
  "Ġti": 1593,
  "weet": 1594,
  "Ġab": 1595,
  "Ġsow": 1596,
  "ads": 1597,
  "Ġexam": 1598,
  "ms": 1599,
  "Ġinit": 1600,
  "idel": 1601,
  "rika": 1602,
  "Ġit": 1603,
  "Ġtal": 1604,
  "Ġhel": 1605,
  "Ġverst": 1606,
  "Ġprinc": 1607,
  "Ġrand": 1608,
  "Ġnat": 1609,
  "Ġun": 1610,
  "Ġbru": 1611,
  "Ġins": 1612,
  "ider": 1613,
  "ervo": 1614,
  "Ġkenn": 1615,
  "son": 1616,
  "Ġarm": 1617,
  "Ġklim": 1618,
  "Ġjur": 1619,
  "zier": 1620,
  "ase": 1621,
  "orie": 1622,
  "Ġpaul": 1623,
  "Ġlinks": 1624,
  "Ġdor": 1625,
  "po": 1626,
  "Ġslag": 1627,
  "Ġpre": 1628,
  "Ġmening": 1629,
  "inden": 1630,
  "pp": 1631,
  "Ġpat": 1632,
  "her": 1633,
  "achen": 1634,
  "ait": 1635,
  "ender": 1636,
  "Ġheld": 1637,
  "ac": 1638,
  "tp": 1639,
  "ate": 1640,
  "Ġfinale": 1641,
  "Ġramp": 1642,
  "Ġjam": 1643,
  "Ġvog": 1644,
  "Ġplots": 1645,
  "Ġpot": 1646,
  "rael": 1647,
  "avo": 1648,
  "Ġbied": 1649,
  "Ġcontrole": 1650,
  "Ġverge": 1651,
  "bro": 1652,
  "sw": 1653,
  "ters": 1654,
  "Ġvar": 1655,
  "vert": 1656,
  "program": 1657,
  "Ġall": 1658,
  "Ġbad": 1659,
  "oster": 1660,
  "aa": 1661,
  "Ġpast": 1662,
  "ion": 1663,
  "Ġgener": 1664,
  "Ġsucces": 1665,
  "Ġsne": 1666,
  "bei": 1667,
  "Ġrapport": 1668,
  "ib": 1669,
  "li": 1670,
  "Ġed": 1671,
  "Ġris": 1672,
  "Ġdub": 1673,
  "iner": 1674,
  "oid": 1675,
  "Ġfoto": 1676,
  "wing": 1677,
  "sen": 1678,
  "oper": 1679,
  "oslav": 1680,
  "Ġkro": 1681,
  "Ġmk": 1682,
  "bben": 1683,
  "Ġport": 1684,
  "ta": 1685,
  "com": 1686,
  "gd": 1687,
  "Ġint": 1688,
  "Ġapart": 1689,
  "inger": 1690,
  "iver": 1691,
  "ls": 1692,
  "Ġclub": 1693,
  "Ġdes": 1694,
  "Ġbond": 1695,
  "aus": 1696,
  "gene": 1697,
  "ore": 1698,
  "alie": 1699,
  "Ġrit": 1700,
  "Ġenergie": 1701,
  "ous": 1702,
  "eler": 1703,
  "fo": 1704,
  "ry": 1705,
  "aw": 1706,
  "anks": 1707,
  "ationale": 1708,
  "fh": 1709,
  "Ġcd": 1710,
  "Ġprovinc": 1711,
  "ris": 1712,
  "Ġpret": 1713,
  "stal": 1714,
  "Ġsa": 1715,
  "ita": 1716,
  "Ġbrit": 1717,
  "Ġwinter": 1718,
  "Ġat": 1719,
  "rome": 1720,
  "stad": 1721,
  "Ġann": 1722,
  "Ġlid": 1723,
  "ron": 1724,
  "ici": 1725,
  "Ġok": 1726,
  "ellig": 1727,
  "atisch": 1728,
  "Ġterre": 1729,
  "Ġbot": 1730,
  "Ġhotel": 1731,
  "Ġgrad": 1732,
  "ener": 1733,
  "stre": 1734,
  "ederland": 1735,
  "Ġsuper": 1736,
  "aid": 1737,
  "ps": 1738,
  "langs": 1739,
  "Ġts": 1740,
  "kes": 1741,
  "ichtig": 1742,
  "erge": 1743,
  "Ġserie": 1744,
  "Ġburger": 1745,
  "ket": 1746,
  "Ġdak": 1747,
  "Ġmat": 1748,
  "Ġoverd": 1749,
  "Ġpop": 1750,
  "ident": 1751,
  "zon": 1752,
  "Ġriv": 1753,
  "aking": 1754,
  "fs": 1755,
  "lap": 1756,
  "isen": 1757,
  "fers": 1758,
  "jd": 1759,
  "Ġpatient": 1760,
  "Ġol": 1761,
  "Ġfeder": 1762,
  "cheiden": 1763,
  "Ġkern": 1764,
  "Ġag": 1765,
  "Ġlink": 1766,
  "oog": 1767,
  "meer": 1768,
  "Ġinteresse": 1769,
  "jen": 1770,
  "adel": 1771,
  "Ġelement": 1772,
  "asse": 1773,
  "itt": 1774,
  "Ġautos": 1775,
  "Ġmedia": 1776,
  "Ġmilieu": 1777,
  "ries": 1778,
  "Ġletter": 1779,
  "eller": 1780,
  "Ġbem": 1781,
  "cho": 1782,
  "Ġstu": 1783,
  "Ġdom": 1784,
  "Ġdefinit": 1785,
  "Ġmilit": 1786,
  "cha": 1787,
  "Ġkar": 1788,
  "Ġfunct": 1789,
  "ding": 1790,
  "enh": 1791,
  "Ġbeden": 1792,
  "td": 1793,
  "Ġren": 1794,
  "Ġdikke": 1795,
  "ana": 1796,
  "Ġpark": 1797,
  "ish": 1798,
  "sk": 1799,
  "vier": 1800,
  "enu": 1801,
  "Ġir": 1802,
  "vic": 1803,
  "Ġlessen": 1804,
  "Ġnot": 1805,
  "ile": 1806,
  "richt": 1807,
  "Ġfract": 1808,
  "Ġcommunic": 1809,
  "Ġutrecht": 1810,
  "esch": 1811,
  "Ġfotos": 1812,
  "olie": 1813,
  "Ġargument": 1814,
  "pan": 1815,
  "Ġherk": 1816,
  "Ġth": 1817,
  "Ġmax": 1818,
  "had": 1819,
  "ema": 1820,
  "chu": 1821,
  "Ġform": 1822,
  "emo": 1823,
  "ete": 1824,
  "Ġtyp": 1825,
  "Ġbod": 1826,
  "Ġculture": 1827,
  "lies": 1828,
  "Ġpsych": 1829,
  "up": 1830,
  "Ġdod": 1831,
  "Ġspelling": 1832,
  "Ġcurs": 1833,
  "Ġqua": 1834,
  "Ġbureau": 1835,
  "rees": 1836,
  "ico": 1837,
  "ote": 1838,
  "Ġbord": 1839,
  "pres": 1840,
  "efd": 1841,
  "Ġmog": 1842,
  "Ġmos": 1843,
  "Ġpi": 1844,
  "andering": 1845,
  "port": 1846,
  "Ġdoc": 1847,
  "atische": 1848,
  "Ġem": 1849,
  "fel": 1850,
  "Ġbon": 1851,
  "vak": 1852,
  "Ġitalia": 1853,
  "brand": 1854,
  "Ġsu": 1855,
  "hang": 1856,
  "oc": 1857,
  "Ġstrand": 1858,
  "Ġgent": 1859,
  "Ġmuseum": 1860,
  "vd": 1861,
  "ool": 1862,
  "lok": 1863,
  "dek": 1864,
  "Ġpol": 1865,
  "half": 1866,
  "ju": 1867,
  "ball": 1868,
  "ton": 1869,
  "ir": 1870,
  "riet": 1871,
  "Ġhom": 1872,
  "Ġeurope": 1873,
  "olang": 1874,
  "sto": 1875,
  "Ġstation": 1876,
  "uf": 1877,
  "bert": 1878,
  "Ġcollege": 1879,
  "bek": 1880,
  "Ġseiz": 1881,
  "alm": 1882,
  "ilig": 1883,
  "Ġproces": 1884,
  "nat": 1885,
  "ni": 1886,
  "markt": 1887,
  "aron": 1888,
  "emb": 1889,
  "tere": 1890,
  "ingers": 1891,
  "Ġkok": 1892,
  "Ġsoc": 1893,
  "mas": 1894,
  "Ġindivid": 1895,
  "iveau": 1896,
  "Ġadv": 1897,
  "uler": 1898,
  "ob": 1899,
  "x": 1900,
  "hor": 1901,
  "wil": 1902,
  "Ġemot": 1903,
  "Ġgoo": 1904,
  "water": 1905,
  "Ġinvest": 1906,
  "lotte": 1907,
  "Ġven": 1908,
  "rale": 1909,
  "Ġautom": 1910,
  "iders": 1911,
  "angers": 1912,
  "ith": 1913,
  "Ġsint": 1914,
  "lim": 1915,
  "Ġbron": 1916,
  "iest": 1917,
  "tober": 1918,
  "Ġmama": 1919,
  "bos": 1920,
  "Ġwegen": 1921,
  "Ġgeg": 1922,
  "Ġprotest": 1923,
  "chr": 1924,
  "Ġboot": 1925,
  "alk": 1926,
  "Ġera": 1927,
  "Ġcombin": 1928,
  "eurs": 1929,
  "ation": 1930,
  "Ġtom": 1931,
  "ered": 1932,
  "Ġfab": 1933,
  "Ġseks": 1934,
  "iland": 1935,
  "part": 1936,
  "Ġhistor": 1937,
  "iven": 1938,
  "apa": 1939,
  "Ġfunction": 1940,
  "Ġrecl": 1941,
  "esse": 1942,
  "anges": 1943,
  "Ġplant": 1944,
  "Ġklu": 1945,
  "oningen": 1946,
  "zn": 1947,
  "tm": 1948,
  "ila": 1949,
  "Ġcv": 1950,
  "Ġbreed": 1951,
  "chen": 1952,
  "Ġorgan": 1953,
  "Ġbib": 1954,
  "Ġtone": 1955,
  "Ġink": 1956,
  "err": 1957,
  "ilde": 1958,
  "ots": 1959,
  "hof": 1960,
  "Ġgras": 1961,
  "Ġdav": 1962,
  "Ġpad": 1963,
  "Ġseptember": 1964,
  "older": 1965,
  "Ġev": 1966,
  "ohan": 1967,
  "ow": 1968,
  "Ġlet": 1969,
  "will": 1970,
  "ept": 1971,
  "rel": 1972,
  "Ġpari": 1973,
  "elig": 1974,
  "erp": 1975,
  "Ġprof": 1976,
  "eman": 1977,
  "lio": 1978,
  "Ġlands": 1979,
  "Ġspring": 1980,
  "pal": 1981,
  "Ġperfect": 1982,
  "Ġperson": 1983,
  "md": 1984,
  "ureau": 1985,
  "erna": 1986,
  "Ġconclus": 1987,
  "won": 1988,
  "Ġsig": 1989,
  "olut": 1990,
  "Ġovers": 1991,
  "Ġpie": 1992,
  "ending": 1993,
  "Ġsector": 1994,
  "lon": 1995,
  "Ġlied": 1996,
  "Ġtour": 1997,
  "Ġallen": 1998,
  "rol": 1999,
  "ole": 2000,
  "Ġco": 2001,
  "tw": 2002,
  "heim": 2003,
  "dom": 2004,
  "Ġnew": 2005,
  "Ġadvoc": 2006,
  "pend": 2007,
  "ewe": 2008,
  "Ġactiv": 2009,
  "bet": 2010,
  "Ġenth": 2011,
  "Ġkou": 2012,
  "wed": 2013,
  "Ġpremier": 2014,
  "Ġlimburg": 2015,
  "nel": 2016,
  "Ġkor": 2017,
  "mmm": 2018,
  "onen": 2019,
  "pi": 2020,
  "Ġontvang": 2021,
  "week": 2022,
  "Ġgec": 2023,
  "zin": 2024,
  "Ġmate": 2025,
  "ner": 2026,
  "uin": 2027,
  "sz": 2028,
  "hou": 2029,
  "arg": 2030,
  "anc": 2031,
  "Ġverdienen": 2032,
  "blo": 2033,
  "lam": 2034,
  "Ġinstant": 2035,
  "Ġjournalist": 2036,
  "robe": 2037,
  "ret": 2038,
  "Ġteam": 2039,
  "jn": 2040,
  "lymp": 2041,
  "enter": 2042,
  "Ġbeen": 2043,
  "Ġruss": 2044,
  "ane": 2045,
  "ument": 2046,
  "hol": 2047,
  "vig": 2048,
  "Ġprima": 2049,
  "Ġrespect": 2050,
  "agne": 2051,
  "zu": 2052,
  "andid": 2053,
  "rip": 2054,
  "enk": 2055,
  "Ġand": 2056,
  "Ġpeter": 2057,
  "eps": 2058,
  "Ġhers": 2059,
  "sm": 2060,
  "neg": 2061,
  "Ġrus": 2062,
  "broken": 2063,
  "Ġcom": 2064,
  "stat": 2065,
  "Ġaspect": 2066,
  "Ġdemocr": 2067,
  "gem": 2068,
  "Ġcafe": 2069,
  "aut": 2070,
  "ium": 2071,
  "Ġoverhe": 2072,
  "anders": 2073,
  "inding": 2074,
  "chrift": 2075,
  "Ġhaven": 2076,
  "Ġpu": 2077,
  "rop": 2078,
  "Ġartikel": 2079,
  "ific": 2080,
  "Ġluk": 2081,
  "Ġfase": 2082,
  "esh": 2083,
  "verb": 2084,
  "Ġserv": 2085,
  "Ġsal": 2086,
  "Ġstage": 2087,
  "Ġkra": 2088,
  "Ġzwe": 2089,
  "ando": 2090,
  "Ġaugust": 2091,
  "Ġham": 2092,
  "Ġong": 2093,
  "uli": 2094,
  "ping": 2095,
  "Ġmoderne": 2096,
  "ess": 2097,
  "Ġmest": 2098,
  "mar": 2099,
  "omp": 2100,
  "oning": 2101,
  "iew": 2102,
  "Ġdef": 2103,
  "Ġex": 2104,
  "pers": 2105,
  "Ġpij": 2106,
  "pra": 2107,
  "zel": 2108,
  "Ġnut": 2109,
  "order": 2110,
  "name": 2111,
  "Ġstom": 2112,
  "mars": 2113,
  "eed": 2114,
  "Ġcons": 2115,
  "geh": 2116,
  "Ġaz": 2117,
  "Ġrad": 2118,
  "Ġpet": 2119,
  "ffer": 2120,
  "ire": 2121,
  "Ġtam": 2122,
  "gra": 2123,
  "Ġtheater": 2124,
  "list": 2125,
  "bar": 2126,
  "Ġsold": 2127,
  "Ġopr": 2128,
  "tn": 2129,
  "feld": 2130,
  "Ġku": 2131,
  "Ġplat": 2132,
  "az": 2133,
  "Ġmart": 2134,
  "Ġtra": 2135,
  "mel": 2136,
  "Ġjuni": 2137,
  "Ġmass": 2138,
  "arel": 2139,
  "Ġbom": 2140,
  "nam": 2141,
  "Ġsecond": 2142,
  "ilver": 2143,
  "Ġadministr": 2144,
  "Ġcamp": 2145,
  "co": 2146,
  "Ġmal": 2147,
  "Ġim": 2148,
  "fl": 2149,
  "Ġpan": 2150,
  "ora": 2151,
  "ched": 2152,
  "ec": 2153,
  "ense": 2154,
  "Ġsnap": 2155,
  "gypt": 2156,
  "Ġlas": 2157,
  "aret": 2158,
  "aming": 2159,
  "affen": 2160,
  "ustral": 2161,
  "Ġfantast": 2162,
  "Ġlip": 2163,
  "Ġmach": 2164,
  "ca": 2165,
  "less": 2166,
  "lu": 2167,
  "Ġoma": 2168,
  "Ġwol": 2169,
  "ends": 2170,
  "Ġimm": 2171,
  "Ġsim": 2172,
  "Ġtoes": 2173,
  "rot": 2174,
  "Ġlev": 2175,
  "Ġmari": 2176,
  "Ġens": 2177,
  "meld": 2178,
  "Ġconstant": 2179,
  "Ġjon": 2180,
  "top": 2181,
  "sters": 2182,
  "pass": 2183,
  "eldig": 2184,
  "cher": 2185,
  "Ġoper": 2186,
  "Ġbart": 2187,
  "emark": 2188,
  "Ġinvo": 2189,
  "edi": 2190,
  "Ġconcurrent": 2191,
  "Ġnek": 2192,
  "Ġplus": 2193,
  "pas": 2194,
  "Ġgre": 2195,
  "word": 2196,
  "rit": 2197,
  "Ġbush": 2198,
  "cre": 2199,
  "enda": 2200,
  "Ġministers": 2201,
  "mers": 2202,
  "Ġapril": 2203,
  "aff": 2204,
  "enties": 2205,
  "Ġspanning": 2206,
  "Ġbrink": 2207,
  "urst": 2208,
  "Ġlat": 2209,
  "ime": 2210,
  "Ġfel": 2211,
  "ama": 2212,
  "Ġstruct": 2213,
  "cr": 2214,
  "mp": 2215,
  "oom": 2216,
  "Ġap": 2217,
  "att": 2218,
  "endo": 2219,
  "tre": 2220,
  "arta": 2221,
  "otten": 2222,
  "sv": 2223,
  "Ġjohn": 2224,
  "Ġrem": 2225,
  "nh": 2226,
  "ave": 2227,
  "ugen": 2228,
  "alse": 2229,
  "ce": 2230,
  "ieg": 2231,
  "Ġnab": 2232,
  "Ġmateria": 2233,
  "ondere": 2234,
  "Ġgun": 2235,
  "ikel": 2236,
  "inde": 2237,
  "Ġlot": 2238,
  "eln": 2239,
  "Ġkos": 2240,
  "yst": 2241,
  "stem": 2242,
  "Ġtest": 2243,
  "zers": 2244,
  "Ġkat": 2245,
  "alles": 2246,
  "Ġrelat": 2247,
  "Ġkol": 2248,
  "oss": 2249,
  "zi": 2250,
  "Ġdecember": 2251,
  "Ġfri": 2252,
  "Ġcor": 2253,
  "una": 2254,
  "inton": 2255,
  "imeter": 2256,
  "dh": 2257,
  "elder": 2258,
  "Ġhol": 2259,
  "eta": 2260,
  "Ġlen": 2261,
  "club": 2262,
  "Ġcel": 2263,
  "ones": 2264,
  "sel": 2265,
  "imen": 2266,
  "Ġconcert": 2267,
  "nik": 2268,
  "Ġwan": 2269,
  "ities": 2270,
  "Ġban": 2271,
  "nod": 2272,
  "Ġnav": 2273,
  "sn": 2274,
  "lander": 2275,
  "Ġfilms": 2276,
  "Ġmich": 2277,
  "ian": 2278,
  "Ġident": 2279,
  "tes": 2280,
  "orgt": 2281,
  "assing": 2282,
  "Ġrot": 2283,
  "bak": 2284,
  "vis": 2285,
  "aders": 2286,
  "Ġapp": 2287,
  "Ġdoors": 2288,
  "Ġmist": 2289,
  "Ġmont": 2290,
  "Ġpog": 2291,
  "Ġy": 2292,
  "Ġsimp": 2293,
  "Ġsol": 2294,
  "ople": 2295,
  "des": 2296,
  "wb": 2297,
  "Ġmedic": 2298,
  "Ġsk": 2299,
  "Ġjapan": 2300,
  "Ġbla": 2301,
  "ati": 2302,
  "Ġdossier": 2303,
  "erb": 2304,
  "ift": 2305,
  "Ġmotor": 2306,
  "anken": 2307,
  "akk": 2308,
  "Ġbol": 2309,
  "ips": 2310,
  "Ġdocument": 2311,
  "mon": 2312,
  "beg": 2313,
  "Ġpartners": 2314,
  "Ġpens": 2315,
  "Ġpublic": 2316,
  "Ġgratis": 2317,
  "ias": 2318,
  "Ġluc": 2319,
  "ifie": 2320,
  "uy": 2321,
  "Ġpopul": 2322,
  "Ġser": 2323,
  "aps": 2324,
  "Ġsh": 2325,
  "pron": 2326,
  "bt": 2327,
  "llen": 2328,
  "Ġmeld": 2329,
  "Ġdek": 2330,
  "Ġtradition": 2331,
  "Ġchar": 2332,
  "Ġcade": 2333,
  "achel": 2334,
  "Ġwonder": 2335,
  "Ġmid": 2336,
  "lek": 2337,
  "ego": 2338,
  "eters": 2339,
  "Ġingest": 2340,
  "Ġinstit": 2341,
  "ome": 2342,
  "dra": 2343,
  "Ġstro": 2344,
  "Ġtim": 2345,
  "ikan": 2346,
  "Ġcommerc": 2347,
  "db": 2348,
  "ces": 2349,
  "Ġverde": 2350,
  "Ġindust": 2351,
  "Ġnon": 2352,
  "Ġnag": 2353,
  "uster": 2354,
  "emp": 2355,
  "thon": 2356,
  "rick": 2357,
  "rap": 2358,
  "kker": 2359,
  "uite": 2360,
  "loe": 2361,
  "amel": 2362,
  "iegel": 2363,
  "Ġvel": 2364,
  "Ġkarakter": 2365,
  "outer": 2366,
  "sd": 2367,
  "Ġstru": 2368,
  "Ġjul": 2369,
  "abb": 2370,
  "adi": 2371,
  "Ġburgers": 2372,
  "Ġagent": 2373,
  "Ġtens": 2374,
  "gh": 2375,
  "Ġmater": 2376,
  "agens": 2377,
  "Ġtype": 2378,
  "iere": 2379,
  "orsch": 2380,
  "Ġfries": 2381,
  "jong": 2382,
  "Ġaltern": 2383,
  "mt": 2384,
  "fst": 2385,
  "appe": 2386,
  "Ġhit": 2387,
  "ey": 2388,
  "annie": 2389,
  "inst": 2390,
  "chat": 2391,
  "Ġnovember": 2392,
  "rede": 2393,
  "pun": 2394,
  "Ġdialect": 2395,
  "vla": 2396,
  "Ġdol": 2397,
  "Ġrep": 2398,
  "ollen": 2399,
  "Ġbergen": 2400,
  "ix": 2401,
  "bs": 2402,
  "Ġconst": 2403,
  "Ġnota": 2404,
  "olle": 2405,
  "esta": 2406,
  "Ġdun": 2407,
  "ld": 2408,
  "Ġdemonstr": 2409,
  "Ġbalk": 2410,
  "Ġcontrol": 2411,
  "Ġbudget": 2412,
  "Ġcontract": 2413,
  "uel": 2414,
  "Ġdames": 2415,
  "ism": 2416,
  "Ġsab": 2417,
  "Ġrend": 2418,
  "Ġconcentr": 2419,
  "Ġspo": 2420,
  "Ġtong": 2421,
  "ay": 2422,
  "Ġyork": 2423,
  "Ġamend": 2424,
  "Ġleider": 2425,
  "Ġwen": 2426,
  "orts": 2427,
  "Ġped": 2428,
  "uts": 2429,
  "ingt": 2430,
  "Ġee": 2431,
  "cont": 2432,
  "kla": 2433,
  "Ġdried": 2434,
  "Ġsno": 2435,
  "jan": 2436,
  "alex": 2437,
  "Ġerm": 2438,
  "Ġest": 2439,
  "oka": 2440,
  "ild": 2441,
  "esp": 2442,
  "Ġmor": 2443,
  "Ġflu": 2444,
  "pie": 2445,
  "gres": 2446,
  "Ġmodern": 2447,
  "Ġcorrect": 2448,
  "Ġbag": 2449,
  "rent": 2450,
  "Ġtell": 2451,
  "eth": 2452,
  "ilt": 2453,
  "Ġinform": 2454,
  "emer": 2455,
  "Ġerk": 2456,
  "Ġdiverse": 2457,
  "Ġbaby": 2458,
  "Ġfig": 2459,
  "Ġvet": 2460,
  "Ġeth": 2461,
  "Ġtrad": 2462,
  "ands": 2463,
  "Ġdest": 2464,
  "ban": 2465,
  "rust": 2466,
  "Ġinterview": 2467,
  "Ġmand": 2468,
  "jet": 2469,
  "Ġvest": 2470,
  "oll": 2471,
  "Ġket": 2472,
  "66": 2473,
  "drag": 2474,
  "bra": 2475,
  "Ġaft": 2476,
  "form": 2477,
  "logen": 2478,
  "Ġfor": 2479,
  "plant": 2480,
  "Ġelektr": 2481,
  "tem": 2482,
  "angep": 2483,
  "anged": 2484,
  "Ġkal": 2485,
  "Ġrare": 2486,
  "gv": 2487,
  "apk": 2488,
  "asd": 2489,
  "ham": 2490,
  "inkel": 2491,
  "Ġphil": 2492,
  "Ġovert": 2493,
  "Ġalex": 2494,
  "Ġprogram": 2495,
  "Ġoppos": 2496,
  "rift": 2497,
  "etting": 2498,
  "Ġtou": 2499,
  "Ġrecept": 2500,
  "Ġmod": 2501,
  "roken": 2502,
  "Ġarchitect": 2503,
  "Ġaut": 2504,
  "Ġramen": 2505,
  "mn": 2506,
  "Ġx": 2507,
  "iker": 2508,
  "Ġadopt": 2509,
  "onne": 2510,
  "Ġgezocht": 2511,
  "ermen": 2512,
  "mark": 2513,
  "Ġintens": 2514,
  "Ġnoch": 2515,
  "Ġvent": 2516,
  "Ġpau": 2517,
  "loor": 2518,
  "Ġball": 2519,
  "isis": 2520,
  "bedo": 2521,
  "erse": 2522,
  "lid": 2523,
  "Ġcre": 2524,
  "iswa": 2525,
  "Ġext": 2526,
  "Ġdrugs": 2527,
  "cel": 2528,
  "onte": 2529,
  "wig": 2530,
  "riere": 2531,
  "Ġvi": 2532,
  "Ġdir": 2533,
  "2": 2534,
  "Ġhans": 2535,
  "Ġtak": 2536,
  "riend": 2537,
  "project": 2538,
  "uring": 2539,
  "Ġinstrument": 2540,
  "upp": 2541,
  "abant": 2542,
  "Ġcomputers": 2543,
  "struct": 2544,
  "Ġeig": 2545,
  "peri": 2546,
  "norm": 2547,
  "Ġmarg": 2548,
  "Ġgolf": 2549,
  "Ġlamp": 2550,
  "ott": 2551,
  "Ġdenen": 2552,
  "Ġfavor": 2553,
  "Ġdrank": 2554,
  "Ġrek": 2555,
  "ormal": 2556,
  "Ġselect": 2557,
  "ito": 2558,
  "Ġhor": 2559,
  "Ġring": 2560,
  "Ġgord": 2561,
  "Ġtemper": 2562,
  "uer": 2563,
  "rong": 2564,
  "gers": 2565,
  "lossen": 2566,
  "wers": 2567,
  "Ġprofessor": 2568,
  "Ġemotion": 2569,
  "apper": 2570,
  "Ġactual": 2571,
  "asje": 2572,
  "front": 2573,
  "iets": 2574,
  "Ġtempo": 2575,
  "root": 2576,
  "andel": 2577,
  "uc": 2578,
  "Ġtri": 2579,
  "Ġfa": 2580,
  "pot": 2581,
  "nis": 2582,
  "Ġautor": 2583,
  "Ġrestaurant": 2584,
  "isa": 2585,
  "ark": 2586,
  "Ġrecent": 2587,
  "dden": 2588,
  "erland": 2589,
  "Ġfort": 2590,
  "zes": 2591,
  "di": 2592,
  "tal": 2593,
  "Ġsj": 2594,
  "par": 2595,
  "Ġletters": 2596,
  "Ġmeth": 2597,
  "oons": 2598,
  "mans": 2599,
  "vi": 2600,
  "pn": 2601,
  "Ġchina": 2602,
  "iling": 2603,
  "polit": 2604,
  "Ġfen": 2605,
  "nummer": 2606,
  "unning": 2607,
  "Ġprive": 2608,
  "Ġfot": 2609,
  "Ġvielen": 2610,
  "ato": 2611,
  "Ġmichael": 2612,
  "Ġappart": 2613,
  "Ġservice": 2614,
  "direct": 2615,
  "Ġfund": 2616,
  "Ġei": 2617,
  "olk": 2618,
  "yn": 2619,
  "erts": 2620,
  "Ġbob": 2621,
  "Ġstim": 2622,
  "itu": 2623,
  "Ġpen": 2624,
  "esen": 2625,
  "quete": 2626,
  "Ġlux": 2627,
  "Ġpil": 2628,
  "use": 2629,
  "Ġthu": 2630,
  "amb": 2631,
  "Ġell": 2632,
  "Ġbert": 2633,
  "Ġfin": 2634,
  "Ġone": 2635,
  "enze": 2636,
  "Ġslim": 2637,
  "lin": 2638,
  "Ġmicro": 2639,
  "ners": 2640,
  "iete": 2641,
  "Ġler": 2642,
  "hog": 2643,
  "Ġcreat": 2644,
  "amd": 2645,
  "isc": 2646,
  "Ġarts": 2647,
  "Ġvul": 2648,
  "later": 2649,
  "ages": 2650,
  "ice": 2651,
  "estival": 2652,
  "Ġsar": 2653,
  "Ġaccept": 2654,
  "uning": 2655,
  "ommen": 2656,
  "iever": 2657,
  "Ġgods": 2658,
  "ress": 2659,
  "Ġels": 2660,
  "Ġverdi": 2661,
  "Ġexplos": 2662,
  "olo": 2663,
  "Ġpal": 2664,
  "Ġpartner": 2665,
  "Ġexperiment": 2666,
  "Ġscore": 2667,
  "Ġagenda": 2668,
  "mag": 2669,
  "Ġinspect": 2670,
  "ades": 2671,
  "emie": 2672,
  "ipp": 2673,
  "pri": 2674,
  "fa": 2675,
  "bers": 2676,
  "Ġajax": 2677,
  "emon": 2678,
  "Ġtrans": 2679,
  "Ġlokale": 2680,
  "Ġsan": 2681,
  "oke": 2682,
  "mann": 2683,
  "Ġgraf": 2684,
  "Ġkre": 2685,
  "Ġrelig": 2686,
  "Ġplastic": 2687,
  "anker": 2688,
  "last": 2689,
  "oop": 2690,
  "mond": 2691,
  "entes": 2692,
  "amente": 2693,
  "Ġcomple": 2694,
  "eno": 2695,
  "Ġtas": 2696,
  "Ġplank": 2697,
  "erva": 2698,
  "wit": 2699,
  "orting": 2700,
  "Ġrob": 2701,
  "ael": 2702,
  "Ġpresent": 2703,
  "inge": 2704,
  "aad": 2705,
  "role": 2706,
  "Ġacad": 2707,
  "Ġgar": 2708,
  "inv": 2709,
  "atica": 2710,
  "wend": 2711,
  "Ġzev": 2712,
  "ih": 2713,
  "Ġrent": 2714,
  "Ġmisd": 2715,
  "aj": 2716,
  "ienen": 2717,
  "Ġres": 2718,
  "cl": 2719,
  "Ġram": 2720,
  "reed": 2721,
  "Ġstrom": 2722,
  "ius": 2723,
  "esk": 2724,
  "Ġconflict": 2725,
  "Ġops": 2726,
  "iem": 2727,
  "Ġslu": 2728,
  "uste": 2729,
  "Ġinteg": 2730,
  "eval": 2731,
  "Ġrou": 2732,
  "Ġvin": 2733,
  "Ġtar": 2734,
  "velt": 2735,
  "Ġgal": 2736,
  "los": 2737,
  "Ġsym": 2738,
  "indhoven": 2739,
  "Ġconsequ": 2740,
  "Ġcont": 2741,
  "Ġstorm": 2742,
  "isse": 2743,
  "letter": 2744,
  "essen": 2745,
  "ator": 2746,
  "aged": 2747,
  "isd": 2748,
  "imp": 2749,
  "Ġmou": 2750,
  "Ġholland": 2751,
  "Ġoverst": 2752,
  "Ġchauff": 2753,
  "Ġoven": 2754,
  "Ġmarc": 2755,
  "Ġroman": 2756,
  "rem": 2757,
  "ovic": 2758,
  "agn": 2759,
  "Ġdna": 2760,
  "erc": 2761,
  "bus": 2762,
  "Ġtran": 2763,
  "posit": 2764,
  "Ġsorry": 2765,
  "izer": 2766,
  "Ġhop": 2767,
  "Ġjas": 2768,
  "put": 2769,
  "Ġmes": 2770,
  "Ġwiel": 2771,
  "inke": 2772,
  "Ġlinker": 2773,
  "jaw": 2774,
  "ance": 2775,
  "mil": 2776,
  "Ġid": 2777,
  "ae": 2778,
  "muz": 2779,
  "Ġtil": 2780,
  "ku": 2781,
  "Ġwall": 2782,
  "Ġblind": 2783,
  "Ġopening": 2784,
  "ley": 2785,
  "Ġvideo": 2786,
  "agent": 2787,
  "ersen": 2788,
  "Ġri": 2789,
  "Ġset": 2790,
  "Ġgas": 2791,
  "Ġlaw": 2792,
  "Ġmad": 2793,
  "irk": 2794,
  "anne": 2795,
  "obb": 2796,
  "gs": 2797,
  "Ġcomplex": 2798,
  "Ġjob": 2799,
  "Ġfre": 2800,
  "Ġcan": 2801,
  "Ġlaure": 2802,
  "avel": 2803,
  "Ġroll": 2804,
  "Ġhan": 2805,
  "Ġtaken": 2806,
  "Ġgrap": 2807,
  "borg": 2808,
  "erek": 2809,
  "Ġfan": 2810,
  "Ġdal": 2811,
  "Ġrev": 2812,
  "Ġbegr": 2813,
  "fab": 2814,
  "Ġfra": 2815,
  "ano": 2816,
  "rote": 2817,
  "Ġfestival": 2818,
  "Ġobject": 2819,
  "Ġsystem": 2820,
  "product": 2821,
  "Ġloss": 2822,
  "steen": 2823,
  "Ġfact": 2824,
  "Ġcategorie": 2825,
  "uteur": 2826,
  "Ġhav": 2827,
  "Ġtrom": 2828,
  "Ġjack": 2829,
  "eting": 2830,
  "brit": 2831,
  "ques": 2832,
  "stm": 2833,
  "chied": 2834,
  "strom": 2835,
  "elm": 2836,
  "Ġallo": 2837,
  "ateria": 2838,
  "Ġstemming": 2839,
  "Ġstudies": 2840,
  "Ġsy": 2841,
  "ines": 2842,
  "atri": 2843,
  "Ġbil": 2844,
  "Ġincident": 2845,
  "bi": 2846,
  "Ġevalu": 2847,
  "Ġprincip": 2848,
  "Ġzi": 2849,
  "tek": 2850,
  "ieur": 2851,
  "atte": 2852,
  "Ġlui": 2853,
  "ata": 2854,
  "Ġhum": 2855,
  "Ġbill": 2856,
  "Ġadres": 2857,
  "Ġmail": 2858,
  "Ġgenu": 2859,
  "aced": 2860,
  "Ġiv": 2861,
  "Ġnic": 2862,
  "pect": 2863,
  "med": 2864,
  "arte": 2865,
  "aller": 2866,
  "Ġchem": 2867,
  "eming": 2868,
  "oes": 2869,
  "Ġmuse": 2870,
  "Ġplein": 2871,
  "Ġdavid": 2872,
  "Ġspont": 2873,
  "elier": 2874,
  "vu": 2875,
  "onn": 2876,
  "Ġemail": 2877,
  "Ġfn": 2878,
  "amm": 2879,
  "Ġjos": 2880,
  "Ġpik": 2881,
  "oth": 2882,
  "igs": 2883,
  "onz": 2884,
  "ford": 2885,
  "Ġindia": 2886,
  "annes": 2887,
  "ain": 2888,
  "boot": 2889,
  "Ġcoc": 2890,
  "Ġzoekt": 2891,
  "Ġbeiden": 2892,
  "Ġpodium": 2893,
  "Ġrap": 2894,
  "Ġener": 2895,
  "chaft": 2896,
  "lig": 2897,
  "god": 2898,
  "ubb": 2899,
  "Ġgol": 2900,
  "Ġboss": 2901,
  "erte": 2902,
  "Ġtik": 2903,
  "Ġwill": 2904,
  "Ġappar": 2905,
  "graf": 2906,
  "ilm": 2907,
  "Ġgig": 2908,
  "olg": 2909,
  "ira": 2910,
  "Ġconserv": 2911,
  "ml": 2912,
  "edge": 2913,
  "Ġnak": 2914,
  "ikers": 2915,
  "Ġgan": 2916,
  "Ġbig": 2917,
  "Ġpagina": 2918,
  "ique": 2919,
  "Ġpir": 2920,
  "ward": 2921,
  "Ġmodel": 2922,
  "Ġfile": 2923,
  "Ġlong": 2924,
  "onald": 2925,
  "chn": 2926,
  "elige": 2927,
  "oto": 2928,
  "vre": 2929,
  "kou": 2930,
  "Ġjose": 2931,
  "Ġsand": 2932,
  "aving": 2933,
  "Ġalcohol": 2934,
  "Ġpel": 2935,
  "Ġgi": 2936,
  "Ġrecord": 2937,
  "Ġmob": 2938,
  "Ġloc": 2939,
  "Ġvere": 2940,
  "imd": 2941,
  "reff": 2942,
  "mal": 2943,
  "alte": 2944,
  "Ġabsolute": 2945,
  "Ġerf": 2946,
  "Ġsub": 2947,
  "erti": 2948,
  "pring": 2949,
  "arse": 2950,
  "ading": 2951,
  "rad": 2952,
  "Ġfond": 2953,
  "lic": 2954,
  "Ġterr": 2955,
  "Ġverte": 2956,
  "links": 2957,
  "ado": 2958,
  "itting": 2959,
  "beh": 2960,
  "ros": 2961,
  "esters": 2962,
  "Ġstudio": 2963,
  "Ġmie": 2964,
  "Ġcrisis": 2965,
  "sc": 2966,
  "Ġtransport": 2967,
  "oring": 2968,
  "enti": 2969,
  "ulling": 2970,
  "Ġmol": 2971,
  "Ġredd": 2972,
  "Ġpron": 2973,
  "gg": 2974,
  "istan": 2975,
  "plet": 2976,
  "hel": 2977,
  "uil": 2978,
  "Ġgu": 2979,
  "lets": 2980,
  "Ġjac": 2981,
  "Ġdam": 2982,
  "Ġbern": 2983,
  "lm": 2984,
  "Ġfrance": 2985,
  "Ġdew": 2986,
  "Ġwal": 2987,
  "Ġconcrete": 2988,
  "leen": 2989,
  "bon": 2990,
  "Ġtol": 2991,
  "wind": 2992,
  "Ġflat": 2993,
  "ocr": 2994,
  "Ġtemp": 2995,
  "omas": 2996,
  "Ġandre": 2997,
  "Ġtrain": 2998,
  "enc": 2999,
  "ct": 3000,
  "Ġaccent": 3001,
  "dev": 3002,
  "aille": 3003,
  "aver": 3004,
  "Ġglo": 3005,
  "Ġchinese": 3006,
  "Ġmore": 3007,
  "Ġthee": 3008,
  "ames": 3009,
  "Ġdem": 3010,
  "ino": 3011,
  "itaire": 3012,
  "Ġcollect": 3013,
  "Ġdesk": 3014,
  "Ġef": 3015,
  "Ġsymbol": 3016,
  "nav": 3017,
  "anga": 3018,
  "alo": 3019,
  "Ġopin": 3020,
  "Ġpand": 3021,
  "arch": 3022,
  "arge": 3023,
  "oris": 3024,
  "atrix": 3025,
  "ulen": 3026,
  "lak": 3027,
  "Ġec": 3028,
  "Ġprior": 3029,
  "ningen": 3030,
  "Ġsympath": 3031,
  "Ġprocedure": 3032,
  "post": 3033,
  "Ġrec": 3034,
  "Ġbra": 3035,
  "Ġhare": 3036,
  "Ġchaos": 3037,
  "kop": 3038,
  "aul": 3039,
  "Ġstra": 3040,
  "ute": 3041,
  "Ġcal": 3042,
  "iana": 3043,
  "Ġsur": 3044,
  "Ġtrib": 3045,
  "abe": 3046,
  "erver": 3047,
  "iev": 3048,
  "Ġbelt": 3049,
  "ash": 3050,
  "Ġlok": 3051,
  "Ġkab": 3052,
  "ras": 3053,
  "Ġlam": 3054,
  "Ġdollar": 3055,
  "Ġjer": 3056,
  "Ġca": 3057,
  "loo": 3058,
  "Ġleng": 3059,
  "Ġkin": 3060,
  "icos": 3061,
  "inned": 3062,
  "Ġsupporters": 3063,
  "ww": 3064,
  "Ġsi": 3065,
  "chie": 3066,
  "col": 3067,
  "Ġharder": 3068,
  "Ġnational": 3069,
  "achts": 3070,
  "conde": 3071,
  "reet": 3072,
  "hop": 3073,
  "Ġlies": 3074,
  "unnel": 3075,
  "Ġaute": 3076,
  "bu": 3077,
  "Ġstructure": 3078,
  "Ġcoal": 3079,
  "stro": 3080,
  "Ġfu": 3081,
  "Ġdepress": 3082,
  "Ġhak": 3083,
  "Ġmam": 3084,
  "Ġschop": 3085,
  "agers": 3086,
  "uter": 3087,
  "oft": 3088,
  "Ġfigure": 3089,
  "Ġrobert": 3090,
  "ichel": 3091,
  "pad": 3092,
  "stoff": 3093,
  "Ġelders": 3094,
  "kg": 3095,
  "une": 3096,
  "Ġtalent": 3097,
  "afd": 3098,
  "Ġfinancier": 3099,
  "Ġvie": 3100,
  "Ġmy": 3101,
  "ung": 3102,
  "Ġcr": 3103,
  "Ġass": 3104,
  "Ġpv": 3105,
  "Ġuz": 3106,
  "stadt": 3107,
  "Ġbund": 3108,
  "Ġess": 3109,
  "ilst": 3110,
  "Ġconfer": 3111,
  "ago": 3112,
  "ants": 3113,
  "Ġvon": 3114,
  "Ġkrist": 3115,
  "alem": 3116,
  "Ġput": 3117,
  "ly": 3118,
  "under": 3119,
  "ict": 3120,
  "anas": 3121,
  "Ġregion": 3122,
  "Ġdec": 3123,
  "atorium": 3124,
  "Ġproducer": 3125,
  "brief": 3126,
  "ex": 3127,
  "Ġvos": 3128,
  "eper": 3129,
  "edd": 3130,
  "Ġmeng": 3131,
  "Ġfat": 3132,
  "Ġcompetit": 3133,
  "vin": 3134,
  "Ġilleg": 3135,
  "sector": 3136,
  "ifice": 3137,
  "Ġcao": 3138,
  "ods": 3139,
  "tra": 3140,
  "activ": 3141,
  "Ġwar": 3142,
  "Ġlouis": 3143,
  "igg": 3144,
  "Ġhut": 3145,
  "stop": 3146,
  "Ġnicht": 3147,
  "Ġconstruct": 3148,
  "aniel": 3149,
  "Ġsco": 3150,
  "Ġald": 3151,
  "Ġjud": 3152,
  "Ġnil": 3153,
  "Ġhed": 3154,
  "bind": 3155,
  "dur": 3156,
  "Ġcontext": 3157,
  "Ġgarant": 3158,
  "bb": 3159,
  "Ġhands": 3160,
  "wap": 3161,
  "Ġlust": 3162,
  "pon": 3163,
  "Ġlit": 3164,
  "tha": 3165,
  "nes": 3166,
  "Ġcommun": 3167,
  "oods": 3168,
  "luk": 3169,
  "Ġparallel": 3170,
  "Ġjean": 3171,
  "Ġwk": 3172,
  "Ġeuth": 3173,
  "Ġsets": 3174,
  "past": 3175,
  "Ġmobil": 3176,
  "Ġsign": 3177,
  "ject": 3178,
  "Ġsubsid": 3179,
  "conom": 3180,
  "Ġorden": 3181,
  "erken": 3182,
  "orth": 3183,
  "kest": 3184,
  "ola": 3185,
  "Ġidea": 3186,
  "aler": 3187,
  "arr": 3188,
  "rib": 3189,
  "usters": 3190,
  "ux": 3191,
  "Ġsc": 3192,
  "Ġdance": 3193,
  "ugar": 3194,
  "uv": 3195,
  "iza": 3196,
  "wart": 3197,
  "Ġwag": 3198,
  "Ġvor": 3199,
  "test": 3200,
  "Ġgear": 3201,
  "wor": 3202,
  "zee": 3203,
  "Ġtrainer": 3204,
  "ours": 3205,
  "Ġbarcelona": 3206,
  "Ġruk": 3207,
  "itters": 3208,
  "hen": 3209,
  "fil": 3210,
  "ais": 3211,
  "icus": 3212,
  "Ġsect": 3213,
  "Ġingen": 3214,
  "Ġintegr": 3215,
  "imer": 3216,
  "ios": 3217,
  "Ġcomment": 3218,
  "mb": 3219,
  "Ġinn": 3220,
  "tti": 3221,
  "Ġarg": 3222,
  "Ġsen": 3223,
  "Ġreb": 3224,
  "oker": 3225,
  "Ġwashington": 3226,
  "Ġvn": 3227,
  "cke": 3228,
  "las": 3229,
  "egr": 3230,
  "dz": 3231,
  "hart": 3232,
  "chal": 3233,
  "Ġprofession": 3234,
  "obil": 3235,
  "Ġvs": 3236,
  "Ġbots": 3237,
  "Ġcam": 3238,
  "my": 3239,
  "hem": 3240,
  "Ġstatus": 3241,
  "ogra": 3242,
  "coop": 3243,
  "acob": 3244,
  "Ġdecre": 3245,
  "Ġmarketing": 3246,
  "arming": 3247,
  "rest": 3248,
  "sem": 3249,
  "arent": 3250,
  "reur": 3251,
  "Ġdatum": 3252,
  "olf": 3253,
  "Ġbrom": 3254,
  "school": 3255,
  "esti": 3256,
  "Ġtennis": 3257,
  "Ġgramm": 3258,
  "q": 3259,
  "chem": 3260,
  "Ġdut": 3261,
  "ipl": 3262,
  "jon": 3263,
  "dk": 3264,
  "also": 3265,
  "okt": 3266,
  "Ġkron": 3267,
  "Ġair": 3268,
  "Ġrat": 3269,
  "elsen": 3270,
  "iro": 3271,
  "just": 3272,
  "ital": 3273,
  "rt": 3274,
  "anche": 3275,
  "gere": 3276,
  "ao": 3277,
  "inas": 3278,
  "ghan": 3279,
  "fi": 3280,
  "orna": 3281,
  "pet": 3282,
  "odel": 3283,
  "Ġpra": 3284,
  "Ġtab": 3285,
  "Ġmartin": 3286,
  "char": 3287,
  "ols": 3288,
  "ename": 3289,
  "oton": 3290,
  "Ġarch": 3291,
  "Ġcamping": 3292,
  "Ġvide": 3293,
  "stell": 3294,
  "abin": 3295,
  "ording": 3296,
  "Ġmeg": 3297,
  "liest": 3298,
  "Ġaff": 3299,
  "Ġath": 3300,
  "Ġmeet": 3301,
  "chop": 3302,
  "Ġdame": 3303,
  "hard": 3304,
  "appers": 3305,
  "Ġrace": 3306,
  "time": 3307,
  "ht": 3308,
  "Ġbred": 3309,
  "Ġorg": 3310,
  "Ġabstract": 3311,
  "stu": 3312,
  "Ġdij": 3313,
  "Ġkne": 3314,
  "Ġcomb": 3315,
  "iber": 3316,
  "etal": 3317,
  "Ġuniform": 3318,
  "vr": 3319,
  "Ġdeal": 3320,
  "kke": 3321,
  "udy": 3322,
  "erie": 3323,
  "Ġcds": 3324,
  "contract": 3325,
  "1": 3326,
  "Ġradi": 3327,
  "kd": 3328,
  "eres": 3329,
  "Ġfragment": 3330,
  "ya": 3331,
  "kb": 3332,
  "ask": 3333,
  "Ġvict": 3334,
  "ografie": 3335,
  "erra": 3336,
  "leur": 3337,
  "ekte": 3338,
  "Ġnest": 3339,
  "Ġverse": 3340,
  "ick": 3341,
  "anta": 3342,
  "Ġroom": 3343,
  "Ġduel": 3344,
  "gar": 3345,
  "Ġmaterial": 3346,
  "Ġdrug": 3347,
  "acher": 3348,
  "Ġkot": 3349,
  "Ġambit": 3350,
  "Ġfront": 3351,
  "Ġconcept": 3352,
  "Ġsuggest": 3353,
  "standen": 3354,
  "dings": 3355,
  "Ġona": 3356,
  "Ġstrateg": 3357,
  "Ġbitter": 3358,
  "boom": 3359,
  "haven": 3360,
  "beta": 3361,
  "Ġchocol": 3362,
  "Ġgle": 3363,
  "been": 3364,
  "via": 3365,
  "Ġfed": 3366,
  "Ġsau": 3367,
  "iert": 3368,
  "Ġes": 3369,
  "offer": 3370,
  "ating": 3371,
  "sb": 3372,
  "Ġadvert": 3373,
  "wand": 3374,
  "roduce": 3375,
  "oute": 3376,
  "Ġfus": 3377,
  "har": 3378,
  "orges": 3379,
  "ope": 3380,
  "ards": 3381,
  "azing": 3382,
  "zag": 3383,
  "Ġsocial": 3384,
  "bool": 3385,
  "Ġlib": 3386,
  "ment": 3387,
  "Ġarrest": 3388,
  "ony": 3389,
  "fout": 3390,
  "Ġvari": 3391,
  "Ġeg": 3392,
  "arring": 3393,
  "nota": 3394,
  "inform": 3395,
  "Ġminimum": 3396,
  "tings": 3397,
  "ieder": 3398,
  "Ġklik": 3399,
  "ween": 3400,
  "reste": 3401,
  "Ġglad": 3402,
  "Ġrok": 3403,
  "Ġtraining": 3404,
  "Ġwinters": 3405,
  "Ġib": 3406,
  "Ġvera": 3407,
  "Ġexact": 3408,
  "isp": 3409,
  "ugh": 3410,
  "aga": 3411,
  "aupt": 3412,
  "Ġang": 3413,
  "Ġintelligent": 3414,
  "ulaire": 3415,
  "uters": 3416,
  "techn": 3417,
  "Ġmi": 3418,
  "Ġmeta": 3419,
  "Ġchir": 3420,
  "Ġcol": 3421,
  "Ġend": 3422,
  "inders": 3423,
  "Ġpool": 3424,
  "ils": 3425,
  "beer": 3426,
  "plus": 3427,
  "Ġpom": 3428,
  "riends": 3429,
  "Ġkim": 3430,
  "elman": 3431,
  "Ġtax": 3432,
  "Ġdoping": 3433,
  "Ġleague": 3434,
  "Ġhobby": 3435,
  "wk": 3436,
  "Ġdic": 3437,
  "Ġcou": 3438,
  "stud": 3439,
  "Ġyou": 3440,
  "anter": 3441,
  "Ġhorizon": 3442,
  "ail": 3443,
  "rus": 3444,
  "ram": 3445,
  "Ġassist": 3446,
  "otte": 3447,
  "Ġtoilet": 3448,
  "aby": 3449,
  "Ġot": 3450,
  "Ġspell": 3451,
  "Ġsprint": 3452,
  "ammers": 3453,
  "landers": 3454,
  "odes": 3455,
  "fun": 3456,
  "Ġoptim": 3457,
  "park": 3458,
  "Ġdome": 3459,
  "Ġpag": 3460,
  "aja": 3461,
  "gb": 3462,
  "Ġmassa": 3463,
  "Ġment": 3464,
  "lassen": 3465,
  "Ġmedi": 3466,
  "pecial": 3467,
  "Ġmachine": 3468,
  "Ġcy": 3469,
  "ada": 3470,
  "orb": 3471,
  "isseur": 3472,
  "ini": 3473,
  "Ġfiles": 3474,
  "aria": 3475,
  "Ġjour": 3476,
  "Ġcell": 3477,
  "arem": 3478,
  "Ġmech": 3479,
  "Ġinval": 3480,
  "ereal": 3481,
  "Ġtreffen": 3482,
  "rang": 3483,
  "camp": 3484,
  "theid": 3485,
  "bur": 3486,
  "stit": 3487,
  "Ġuber": 3488,
  "ssel": 3489,
  "Ġwr": 3490,
  "Ġpest": 3491,
  "Ġdou": 3492,
  "imm": 3493,
  "etter": 3494,
  "Ġhind": 3495,
  "Ġworst": 3496,
  "Ġbure": 3497,
  "adh": 3498,
  "Ġther": 3499,
  "dbo": 3500,
  "Ġanne": 3501,
  "Ġmir": 3502,
  "Ġprevent": 3503,
  "Ġinstall": 3504,
  "itat": 3505,
  "Ġmul": 3506,
  "Ġlim": 3507,
  "Ġpiano": 3508,
  "Ġtaxi": 3509,
  "Ġtheo": 3510,
  "Ġcommand": 3511,
  "Ġtank": 3512,
  "pat": 3513,
  "enders": 3514,
  "Ġrab": 3515,
  "ament": 3516,
  "Ġbabys": 3517,
  "ales": 3518,
  "Ġdynam": 3519,
  "add": 3520,
  "illy": 3521,
  "Ġpromot": 3522,
  "Ġtunnel": 3523,
  "Ġsite": 3524,
  "Ġconc": 3525,
  "Ġliberal": 3526,
  "Ġlan": 3527,
  "Ġgarage": 3528,
  "communic": 3529,
  "icap": 3530,
  "Ġoo": 3531,
  "ther": 3532,
  "Ġsocialist": 3533,
  "Ġcommunist": 3534,
  "Ġkilometers": 3535,
  "nad": 3536,
  "Ġcas": 3537,
  "urv": 3538,
  "Ġstren": 3539,
  "atis": 3540,
  "Ġfranc": 3541,
  "bor": 3542,
  "war": 3543,
  "Ġmult": 3544,
  "Ġfinish": 3545,
  "Ġcaravan": 3546,
  "Ġstreet": 3547,
  "Ġhumor": 3548,
  "Ġcamera": 3549,
  "Ġtelefon": 3550,
  "Ġpoet": 3551,
  "Ġdas": 3552,
  "ula": 3553,
  "roles": 3554,
  "strong": 3555,
  "Ġreferendum": 3556,
  "ual": 3557,
  "Ġky": 3558,
  "Ġparc": 3559,
  "Ġard": 3560,
  "oria": 3561,
  "ison": 3562,
  "Ġconfront": 3563,
  "Ġheter": 3564,
  "Ġbree": 3565,
  "legt": 3566,
  "Ġorig": 3567,
  "Ġtast": 3568,
  "Ġcond": 3569,
  "anna": 3570,
  "Ġstatist": 3571,
  "Ġrich": 3572,
  "Ġcanada": 3573,
  "rint": 3574,
  "Ġpier": 3575,
  "Ġadvise": 3576,
  "Ġmaximum": 3577,
  "ffect": 3578,
  "Ġmill": 3579,
  "arend": 3580,
  "mind": 3581,
  "Ġbrazil": 3582,
  "gor": 3583,
  "Ġparticul": 3584,
  "asi": 3585,
  "api": 3586,
  "Ġgrand": 3587,
  "Ġhorm": 3588,
  "agra": 3589,
  "Ġcrim": 3590,
  "Ġcomprom": 3591,
  "Ġfamilies": 3592,
  "car": 3593,
  "pop": 3594,
  "Ġappel": 3595,
  "Ġorganise": 3596,
  "Ġac": 3597,
  "ive": 3598,
  "ike": 3599,
  "Ġvirus": 3600,
  "Ġelektron": 3601,
  "esting": 3602,
  "Ġgoal": 3603,
  "Ġlic": 3604,
  "index": 3605,
  "Ġscript": 3606,
  "zone": 3607,
  "station": 3608,
  "Ġstations": 3609,
  "Ġtheoret": 3610,
  "Ġstress": 3611,
  "ems": 3612,
  "Ġcompens": 3613,
  "useum": 3614,
  "peer": 3615,
  "Ġcab": 3616,
  "Ġhaus": 3617,
  "maker": 3618,
  "ograf": 3619,
  "tru": 3620,
  "eking": 3621,
  "Ġdiploma": 3622,
  "Ġcash": 3623,
  "Ġbetr": 3624,
  "Ġhap": 3625,
  "gre": 3626,
  "urn": 3627,
  "prak": 3628,
  "duct": 3629,
  "nip": 3630,
  "Ġharmon": 3631,
  "ctor": 3632,
  "rite": 3633,
  "makers": 3634,
  "eve": 3635,
  "agog": 3636,
  "Ġfasc": 3637,
  "mi": 3638,
  "Ġdrama": 3639,
  "Ġdim": 3640,
  "Ġtram": 3641,
  "anke": 3642,
  "ani": 3643,
  "akers": 3644,
  "oni": 3645,
  "Ġhat": 3646,
  "Ġdram": 3647,
  "Ġdetails": 3648,
  "Ġintellect": 3649,
  "Ġromant": 3650,
  "Ġjury": 3651,
  "Ġfans": 3652,
  "8": 3653,
  "Ġil": 3654,
  "Ġdoctor": 3655,
  "Ġinformat": 3656,
  "Ġprivacy": 3657,
  "Ġek": 3658,
  "Ġinspir": 3659,
  "Ġwee": 3660,
  "izing": 3661,
  "Ġsme": 3662,
  "Ġray": 3663,
  "Ġaids": 3664,
  "Ġblank": 3665,
  "ops": 3666,
  "Ġspecialist": 3667,
  "iam": 3668,
  "Ġdick": 3669,
  "Ġexempl": 3670,
  "inda": 3671,
  "format": 3672,
  "Ġhass": 3673,
  "ize": 3674,
  "Ġchampions": 3675,
  "Ġworld": 3676,
  "imbledon": 3677,
  "goo": 3678,
  "Ġefficient": 3679,
  "mate": 3680,
  "Ġfrequent": 3681,
  "Ġcity": 3682,
  "not": 3683,
  "alg": 3684,
  "ften": 3685,
  "illet": 3686,
  "Ġsoftware": 3687,
  "mand": 3688,
  "Ġpred": 3689,
  "Ġlunch": 3690,
  "Ġgran": 3691,
  "Ġdiam": 3692,
  "Ġpent": 3693,
  "Ġslee": 3694,
  "Ġere": 3695,
  "assa": 3696,
  "stein": 3697,
  "Ġwc": 3698,
  "Ġdesn": 3699,
  "Ġfax": 3700,
  "Ġsecret": 3701,
  "Ġseni": 3702,
  "ran": 3703,
  "Ġtestament": 3704,
  "Ġstoring": 3705,
  "lements": 3706,
  "Ġillegal": 3707,
  "Ġhect": 3708,
  "cia": 3709,
  "Ġsing": 3710,
  "centre": 3711,
  "itel": 3712,
  "adv": 3713,
  "mis": 3714,
  "nem": 3715,
  "oppel": 3716,
  "Ġsok": 3717,
  "Ġintro": 3718,
  "Ġcit": 3719,
  "Ġabort": 3720,
  "Ġgif": 3721,
  "Ġmant": 3722,
  "jam": 3723,
  "Ġvit": 3724,
  "Ġtherap": 3725,
  "overs": 3726,
  "efs": 3727,
  "Ġroz": 3728,
  "arie": 3729,
  "rian": 3730,
  "Ġwang": 3731,
  "namen": 3732,
  "Ġrock": 3733,
  "Ġkond": 3734,
  "Ġnaz": 3735,
  "ugs": 3736,
  "Ġsolid": 3737,
  "Ġenvelop": 3738,
  "xt": 3739,
  "Ġwebsite": 3740,
  "Ġideal": 3741,
  "Ġfarm": 3742,
  "otive": 3743,
  "abo": 3744,
  "ordo": 3745,
  "Ġroute": 3746,
  "Ġui": 3747,
  "Ġcriteria": 3748,
  "etro": 3749,
  "Ġdepart": 3750,
  "Ġmanagement": 3751,
  "Ġpotent": 3752,
  "Ġhandicap": 3753,
  "Ġmigrant": 3754,
  "Ġson": 3755,
  "Ġformul": 3756,
  "Ġcorrupt": 3757,
  "clus": 3758,
  "Ġgaz": 3759,
  "Ġpure": 3760,
  "Ġprov": 3761,
  "Ġjak": 3762,
  "rand": 3763,
  "Ġlint": 3764,
  "Ġmun": 3765,
  "machine": 3766,
  "Ġcub": 3767,
  "oks": 3768,
  "orda": 3769,
  "Ġmicrosoft": 3770,
  "Ġmanifest": 3771,
  "Ġdj": 3772,
  "Ġmadrid": 3773,
  "Ġmath": 3774,
  "Ġopera": 3775,
  "Ġspecial": 3776,
  "ripp": 3777,
  "Ġexc": 3778,
  "uild": 3779,
  "Ġsubsidies": 3780,
  "Ġcoordin": 3781,
  "Ġorder": 3782,
  "rea": 3783,
  "mes": 3784,
  "dpi": 3785,
  "Ġhere": 3786,
  "Ġrealise": 3787,
  "Ġfruit": 3788,
  "iams": 3789,
  "Ġnep": 3790,
  "Ġmars": 3791,
  "Ġarena": 3792,
  "Ġpy": 3793,
  "athed": 3794,
  "resse": 3795,
  "Ġmort": 3796,
  "ili": 3797,
  "Ġmc": 3798,
  "Ġbab": 3799,
  "han": 3800,
  "beth": 3801,
  "opper": 3802,
  "Ġprocess": 3803,
  "Ġlate": 3804,
  "opers": 3805,
  "ailles": 3806,
  "Ġdetail": 3807,
  "mont": 3808,
  "Ġfull": 3809,
  "alling": 3810,
  "Ġbeled": 3811,
  "Ġflex": 3812,
  "Ġdict": 3813,
  "4": 3814,
  "Ġfantas": 3815,
  "Ġnas": 3816,
  "udden": 3817,
  "ffe": 3818,
  "trust": 3819,
  "Ġgot": 3820,
  "geme": 3821,
  "dl": 3822,
  "Ġill": 3823,
  "ona": 3824,
  "fte": 3825,
  "jas": 3826,
  "ny": 3827,
  "uen": 3828,
  "pm": 3829,
  "isto": 3830,
  "Ġexecut": 3831,
  "Ġkad": 3832,
  "ein": 3833,
  "file": 3834,
  "klass": 3835,
  "Ġschema": 3836,
  "eldo": 3837,
  "oy": 3838,
  "Ġrecre": 3839,
  "Ġautonom": 3840,
  "erson": 3841,
  "inz": 3842,
  "const": 3843,
  "Ġstadium": 3844,
  "Ġcap": 3845,
  "Ġbegins": 3846,
  "cor": 3847,
  "Ġlol": 3848,
  "Ġmap": 3849,
  "Ġmachines": 3850,
  "engo": 3851,
  "ires": 3852,
  "ura": 3853,
  "pest": 3854,
  "Ġlap": 3855,
  "igte": 3856,
  "amt": 3857,
  "ack": 3858,
  "Ġmom": 3859,
  "Ġos": 3860,
  "ellij": 3861,
  "Ġsaint": 3862,
  "Ġpasse": 3863,
  "Ġregistr": 3864,
  "ipt": 3865,
  "chip": 3866,
  "Ġshow": 3867,
  "coord": 3868,
  "Ġbacter": 3869,
  "Ġsms": 3870,
  "Ġnap": 3871,
  "Ġros": 3872,
  "Ġcredit": 3873,
  "Ġhuman": 3874,
  "Ġmillennium": 3875,
  "Ġinfra": 3876,
  "resent": 3877,
  "ising": 3878,
  "Ġbrut": 3879,
  "rens": 3880,
  "Ġinterpret": 3881,
  "Ġpercent": 3882,
  "burger": 3883,
  "Ġfont": 3884,
  "Ġob": 3885,
  "don": 3886,
  "adem": 3887,
  "Ġinner": 3888,
  "Ġinp": 3889,
  "Ġreport": 3890,
  "Ġvrou": 3891,
  "term": 3892,
  "ial": 3893,
  "olly": 3894,
  "onders": 3895,
  "erve": 3896,
  "inges": 3897,
  "Ġbios": 3898,
  "Ġmonument": 3899,
  "Ġwah": 3900,
  "Ġopenings": 3901,
  "Ġrefer": 3902,
  "Ġrog": 3903,
  "essor": 3904,
  "Ġballet": 3905,
  "Ġrub": 3906,
  "Ġguy": 3907,
  "endra": 3908,
  "tep": 3909,
  "jt": 3910,
  "yl": 3911,
  "urb": 3912,
  "olland": 3913,
  "Ġist": 3914,
  "Ġfacult": 3915,
  "Ġmental": 3916,
  "ti": 3917,
  "Ġmethod": 3918,
  "Ġcontinu": 3919,
  "Ġschem": 3920,
  "Ġbibli": 3921,
  "ped": 3922,
  "Ġgift": 3923,
  "Ġfirma": 3924,
  "inee": 3925,
  "apeut": 3926,
  "ign": 3927,
  "prec": 3928,
  "Ġrw": 3929,
  "ria": 3930,
  "pool": 3931,
  "Ġhell": 3932,
  "oz": 3933,
  "Ġmaur": 3934,
  "Ġtrend": 3935,
  "Ġmac": 3936,
  "Ġmeters": 3937,
  "Ġvat": 3938,
  "Ġmyster": 3939,
  "uits": 3940,
  "Ġbach": 3941,
  "mits": 3942,
  "pell": 3943,
  "kap": 3944,
  "Ġsignal": 3945,
  "adder": 3946,
  "Ġfis": 3947,
  "anning": 3948,
  "Ġdad": 3949,
  "Ġevident": 3950,
  "names": 3951,
  "Ġbene": 3952,
  "Ġske": 3953,
  "rof": 3954,
  "Ġanalyse": 3955,
  "Ġkeeper": 3956,
  "Ġarab": 3957,
  "aket": 3958,
  "Ġkas": 3959,
  "zend": 3960,
  "Ġdecor": 3961,
  "ees": 3962,
  "Ġstrip": 3963,
  "Ġdirig": 3964,
  "Ġbenz": 3965,
  "Ġul": 3966,
  "peace": 3967,
  "asa": 3968,
  "Ġmatch": 3969,
  "Ġturn": 3970,
  "Ġcomfort": 3971,
  "licit": 3972,
  "Ġraz": 3973,
  "Ġparticip": 3974,
  "omb": 3975,
  "ivo": 3976,
  "cale": 3977,
  "uilt": 3978,
  "Ġprotester": 3979,
  "Ġcite": 3980,
  "Ġfactor": 3981,
  "Ġnive": 3982,
  "ouch": 3983,
  "Ġjazz": 3984,
  "Ġcur": 3985,
  "key": 3986,
  "like": 3987,
  "kon": 3988,
  "anco": 3989,
  "ims": 3990,
  "Ġcross": 3991,
  "Ġinstruct": 3992,
  "Ġgab": 3993,
  "anj": 3994,
  "histor": 3995,
  "Ġpink": 3996,
  "logs": 3997,
  "kar": 3998,
  "Ġladen": 3999,
  "Ġscene": 4000,
  "Ġrepet": 4001,
  "unk": 4002,
  "Ġvariant": 4003,
  "model": 4004,
  "eral": 4005,
  "Ġmoss": 4006,
  "Ġmans": 4007,
  "irus": 4008,
  "Ġregime": 4009,
  "bas": 4010,
  "Ġdua": 4011,
  "fried": 4012,
  "Ġcomput": 4013,
  "Ġenerg": 4014,
  "Ġent": 4015,
  "Ġregul": 4016,
  "Ġtapi": 4017,
  "Ġpilot": 4018,
  "Ġexclus": 4019,
  "lex": 4020,
  "procedure": 4021,
  "rend": 4022,
  "Ġconduct": 4023,
  "enburg": 4024,
  "immer": 4025,
  "gl": 4026,
  "Ġflo": 4027,
  "Ġexplic": 4028,
  "Ġinternational": 4029,
  "Ġtip": 4030,
  "ape": 4031,
  "km": 4032,
  "ares": 4033,
  "Ġdru": 4034,
  "erten": 4035,
  "Ġsens": 4036,
  "lad": 4037,
  "ello": 4038,
  "por": 4039,
  "ym": 4040,
  "Ġroy": 4041,
  "by": 4042,
  "Ġbur": 4043,
  "hey": 4044,
  "arlo": 4045,
  "Ġtor": 4046,
  "Ġfol": 4047,
  "Ġrein": 4048,
  "Ġhil": 4049,
  "Ġdigit": 4050,
  "num": 4051,
  "ney": 4052,
  "Ġcode": 4053,
  "rich": 4054,
  "ivel": 4055,
  "ova": 4056,
  "aster": 4057,
  "anny": 4058,
  "yna": 4059,
  "Ġtreff": 4060,
  "Ġoe": 4061,
  "Ġspot": 4062,
  "Ġfors": 4063,
  "tc": 4064,
  "Ġafr": 4065,
  "ischer": 4066,
  "urge": 4067,
  "lan": 4068,
  "lib": 4069,
  "tb": 4070,
  "oph": 4071,
  "ublice": 4072,
  "afs": 4073,
  "Ġvolley": 4074,
  "std": 4075,
  "Ġplu": 4076,
  "Ġfict": 4077,
  "bat": 4078,
  "Ġelle": 4079,
  "Ġblonde": 4080,
  "Ġweil": 4081,
  "ral": 4082,
  "kind": 4083,
  "Ġluxe": 4084,
  "Ġchef": 4085,
  "Ġconn": 4086,
  "Ġbestellen": 4087,
  "Ġgram": 4088,
  "eline": 4089,
  "Ġleo": 4090,
  "Ġkred": 4091,
  "chor": 4092,
  "Ġspirit": 4093,
  "ascal": 4094,
  "Ġlove": 4095,
  "Ġtorn": 4096,
  "Ġvolt": 4097,
  "ector": 4098,
  "Ġlift": 4099,
  "Ġpresenter": 4100,
  "Ġjames": 4101,
  "Ġcruc": 4102,
  "Ġhas": 4103,
  "set": 4104,
  "Ġwaters": 4105,
  "cer": 4106,
  "Ġirrit": 4107,
  "anst": 4108,
  "itesse": 4109,
  "christ": 4110,
  "Ġmusical": 4111,
  "begin": 4112,
  "udd": 4113,
  "Ġgerek": 4114,
  "Ġpist": 4115,
  "Ġkale": 4116,
  "Ġtrot": 4117,
  "Ġau": 4118,
  "ray": 4119,
  "url": 4120,
  "flat": 4121,
  "Ġpermanent": 4122,
  "ammen": 4123,
  "ali": 4124,
  "rc": 4125,
  "Ġnerve": 4126,
  "Ġtweet": 4127,
  "pub": 4128,
  "Ġlin": 4129,
  "trap": 4130,
  "asm": 4131,
  "Ġprodu": 4132,
  "Ġmode": 4133,
  "Ġpc": 4134,
  "vb": 4135,
  "dney": 4136,
  "Ġtelecom": 4137,
  "Ġhy": 4138,
  "Ġvice": 4139,
  "Ġvalley": 4140,
  "ugal": 4141,
  "Ġlon": 4142,
  "Ġstate": 4143,
  "Ġmary": 4144,
  "Ġmanager": 4145,
  "tee": 4146,
  "sal": 4147,
  "odo": 4148,
  "bron": 4149,
  "lice": 4150,
  "swer": 4151,
  "ligt": 4152,
  "Ġsw": 4153,
  "ules": 4154,
  "Ġexport": 4155,
  "Ġalf": 4156,
  "Ġty": 4157,
  "Ġspect": 4158,
  "eid": 4159,
  "dro": 4160,
  "anch": 4161,
  "Ġdouche": 4162,
  "omers": 4163,
  "Ġoff": 4164,
  "Ġord": 4165,
  "Ġworm": 4166,
  "Ġdiplom": 4167,
  "Ġprop": 4168,
  "shirt": 4169,
  "odie": 4170,
  "Ġnov": 4171,
  "lt": 4172,
  "Ġengel": 4173,
  "Ġindie": 4174,
  "Ġbeer": 4175,
  "cd": 4176,
  "Ġslik": 4177,
  "Ġhug": 4178,
  "entin": 4179,
  "vac": 4180,
  "coach": 4181,
  "Ġgreen": 4182,
  "Ġkalk": 4183,
  "ystem": 4184,
  "Ġsed": 4185,
  "vm": 4186,
  "Ġinterviews": 4187,
  "Ġacc": 4188,
  "epar": 4189,
  "Ġbee": 4190,
  "Ġmish": 4191,
  "Ġvac": 4192,
  "Ġprem": 4193,
  "uish": 4194,
  "Ġfrustr": 4195,
  "iting": 4196,
  "Ġgym": 4197,
  "Ġklin": 4198,
  "Ġvou": 4199,
  "Ġpoets": 4200,
  "Ġalarm": 4201,
  "Ġdisc": 4202,
  "Ġatl": 4203,
  "uck": 4204,
  "Ġhinder": 4205,
  "aper": 4206,
  "Ġpriest": 4207,
  "Ġpare": 4208,
  "zens": 4209,
  "bot": 4210,
  "max": 4211,
  "Ġration": 4212,
  "ocrates": 4213,
  "Ġrecherche": 4214,
  "Ġmarch": 4215,
  "Ġdiscrimin": 4216,
  "lied": 4217,
  "Ġvilla": 4218,
  "Ġchampagne": 4219,
  "Ġhend": 4220,
  "contact": 4221,
  "egg": 4222,
  "reb": 4223,
  "Ġcoach": 4224,
  "Ġmarathon": 4225,
  "eva": 4226,
  "ario": 4227,
  "sa": 4228,
  "Ġtrimest": 4229,
  "illon": 4230,
  "abet": 4231,
  "Ġcriminal": 4232,
  "Ġprotocol": 4233,
  "dp": 4234,
  "raft": 4235,
  "oling": 4236,
  "Ġaw": 4237,
  "Ġpos": 4238,
  "ritten": 4239,
  "enta": 4240,
  "kv": 4241,
  "Ġwh": 4242,
  "Ġtint": 4243,
  "press": 4244,
  "mens": 4245,
  "uvre": 4246,
  "Ġinsect": 4247,
  "Ġjar": 4248,
  "nap": 4249,
  "uro": 4250,
  "iff": 4251,
  "Ġrang": 4252,
  "jm": 4253,
  "achine": 4254,
  "Ġsecre": 4255,
  "Ġstall": 4256,
  "Ġfar": 4257,
  "Ġjal": 4258,
  "Ġeuros": 4259,
  "Ġpriv": 4260,
  "Ġmagn": 4261,
  "uien": 4262,
  "tele": 4263,
  "Ġfame": 4264,
  "Ġpatri": 4265,
  "Ġsec": 4266,
  "bla": 4267,
  "Ġnm": 4268,
  "kur": 4269,
  "Ġinvent": 4270,
  "uids": 4271,
  "Ġjaw": 4272,
  "ubs": 4273,
  "erving": 4274,
  "Ġcapac": 4275,
  "Ġsof": 4276,
  "rist": 4277,
  "iking": 4278,
  "Ġzach": 4279,
  "Ġhete": 4280,
  "lood": 4281,
  "loff": 4282,
  "anka": 4283,
  "Ġqu": 4284,
  "Ġkus": 4285,
  "ipo": 4286,
  "Ġret": 4287,
  "Ġslang": 4288,
  "Ġexp": 4289,
  "Ġmetal": 4290,
  "olders": 4291,
  "Ġperiod": 4292,
  "eras": 4293,
  "Ġpian": 4294,
  "ances": 4295,
  "Ġmemor": 4296,
  "Ġlou": 4297,
  "Ġjap": 4298,
  "Ġracist": 4299,
  "Ġevangel": 4300,
  "Ġup": 4301,
  "Ġdomin": 4302,
  "Ġline": 4303,
  "gener": 4304,
  "Ġdee": 4305,
  "hi": 4306,
  "see": 4307,
  "lein": 4308,
  "rev": 4309,
  "Ġwenn": 4310,
  "Ġinclus": 4311,
  "erta": 4312,
  "otland": 4313,
  "oul": 4314,
  "Ġlance": 4315,
  "anto": 4316,
  "Ġdozen": 4317,
  "aine": 4318,
  "pu": 4319,
  "Ġmentor": 4320,
  "our": 4321,
  "imit": 4322,
  "Ġep": 4323,
  "Ġgold": 4324,
  "film": 4325,
  "Ġsus": 4326,
  "Ġorient": 4327,
  "Ġkart": 4328,
  "Ġwolf": 4329,
  "Ġmask": 4330,
  "ulk": 4331,
  "Ġdin": 4332,
  "pv": 4333,
  "basis": 4334,
  "ianne": 4335,
  "Ġvill": 4336,
  "inal": 4337,
  "cup": 4338,
  "anton": 4339,
  "mart": 4340,
  "Ġlod": 4341,
  "Ġdisco": 4342,
  "Ġunited": 4343,
  "fort": 4344,
  "Ġstep": 4345,
  "Ġgim": 4346,
  "egra": 4347,
  "kin": 4348,
  "Ġartist": 4349,
  "Ġerken": 4350,
  "Ġimpuls": 4351,
  "Ġog": 4352,
  "Ġlik": 4353,
  "rat": 4354,
  "rew": 4355,
  "Ġmav": 4356,
  "plots": 4357,
  "Ġwre": 4358,
  "lov": 4359,
  "utting": 4360,
  "rey": 4361,
  "Ġps": 4362,
  "apel": 4363,
  "hit": 4364,
  "Ġmexico": 4365,
  "pper": 4366,
  "chester": 4367,
  "dy": 4368,
  "Ġallerg": 4369,
  "Ġfam": 4370,
  "Ġwell": 4371,
  "Ġnob": 4372,
  "edo": 4373,
  "Ġcrem": 4374,
  "iva": 4375,
  "Ġstal": 4376,
  "jer": 4377,
  "Ġare": 4378,
  "Ġquiz": 4379,
  "Ġprom": 4380,
  "Ġbast": 4381,
  "grad": 4382,
  "Ġdonor": 4383,
  "student": 4384,
  "Ġcorn": 4385,
  "rog": 4386,
  "cult": 4387,
  "Ġzend": 4388,
  "osl": 4389,
  "iban": 4390,
  "ennifer": 4391,
  "Ġhm": 4392,
  "Ġpou": 4393,
  "raham": 4394,
  "oner": 4395,
  "hs": 4396,
  "Ġintent": 4397,
  "Ġlabor": 4398,
  "iving": 4399,
  "Ġclubs": 4400,
  "Ġreput": 4401,
  "mak": 4402,
  "Ġras": 4403,
  "Ġkont": 4404,
  "blind": 4405,
  "illing": 4406,
  "ksen": 4407,
  "Ġdate": 4408,
  "warm": 4409,
  "Ġtemperature": 4410,
  "reta": 4411,
  "dest": 4412,
  "Ġnature": 4413,
  "john": 4414,
  "thew": 4415,
  "Ġbox": 4416,
  "ogram": 4417,
  "bad": 4418,
  "Ġalm": 4419,
  "glas": 4420,
  "lier": 4421,
  "issement": 4422,
  "abelle": 4423,
  "Ġzor": 4424,
  "bane": 4425,
  "Ġue": 4426,
  "irect": 4427,
  "adt": 4428,
  "alter": 4429,
  "lob": 4430,
  "Ġpremiere": 4431,
  "isters": 4432,
  "uet": 4433,
  "ddy": 4434,
  "ior": 4435,
  "duit": 4436,
  "pos": 4437,
  "ivers": 4438,
  "Ġce": 4439,
  "Ġglob": 4440,
  "Ġapprec": 4441,
  "install": 4442,
  "ota": 4443,
  "print": 4444,
  "import": 4445,
  "Ġwor": 4446,
  "Ġontvangst": 4447,
  "ax": 4448,
  "Ġhypo": 4449,
  "Ġby": 4450,
  "onnement": 4451,
  "Ġmall": 4452,
  "Ġcomplete": 4453,
  "Ġwast": 4454,
  "Ġadel": 4455,
  "Ġcirc": 4456,
  "Ġov": 4457,
  "Ġtact": 4458,
  "Ġki": 4459,
  "Ġfreder": 4460,
  "otos": 4461,
  "dig": 4462,
  "rice": 4463,
  "odge": 4464,
  "Ġmut": 4465,
  "enne": 4466,
  "Ġbless": 4467,
  "Ġslow": 4468,
  "asser": 4469,
  "enberg": 4470,
  "qu": 4471,
  "Ġmonster": 4472,
  "Ġpant": 4473,
  "Ġfos": 4474,
  "Ġmaxim": 4475,
  "Ġbonds": 4476,
  "chi": 4477,
  "mach": 4478,
  "issa": 4479,
  "uce": 4480,
  "Ġoffer": 4481,
  "aka": 4482,
  "kee": 4483,
  "Ġnt": 4484,
  "Ġstag": 4485,
  "Ġbeb": 4486,
  "staking": 4487,
  "Ġamateur": 4488,
  "Ġdial": 4489,
  "akh": 4490,
  "rid": 4491,
  "Ġviet": 4492,
  "var": 4493,
  "lost": 4494,
  "Ġtime": 4495,
  "patient": 4496,
  "bec": 4497,
  "complex": 4498,
  "Ġrib": 4499,
  "Ġvals": 4500,
  "ruit": 4501,
  "erval": 4502,
  "ido": 4503,
  "mos": 4504,
  "Ġweld": 4505,
  "Ġcha": 4506,
  "Ġpardon": 4507,
  "desk": 4508,
  "rain": 4509,
  "Ġange": 4510,
  "antine": 4511,
  "Ġgeo": 4512,
  "chef": 4513,
  "Ġbul": 4514,
  "Ġeb": 4515,
  "olt": 4516,
  "Ġrede": 4517,
  "Ġmanip": 4518,
  "ua": 4519,
  "Ġur": 4520,
  "Ġmetro": 4521,
  "phen": 4522,
  "Ġsil": 4523,
  "Ġsat": 4524,
  "invest": 4525,
  "jour": 4526,
  "Ġtops": 4527,
  "Ġinfl": 4528,
  "Ġrobin": 4529,
  "Ã¸": 4530,
  "Ġscenario": 4531,
  "Ġcler": 4532,
  "aise": 4533,
  "thur": 4534,
  "Ġcircuit": 4535,
  "Ġrelevant": 4536,
  "Ġinsp": 4537,
  "Ġpor": 4538,
  "curr": 4539,
  "Ġpit": 4540,
  "Ġpeut": 4541,
  "Ġpin": 4542,
  "anging": 4543,
  "Ġextreme": 4544,
  "Ġpaste": 4545,
  "Ġbind": 4546,
  "fig": 4547,
  "Ġq": 4548,
  "Ġneger": 4549,
  "osh": 4550,
  "loven": 4551,
  "Ġrau": 4552,
  "16": 4553,
  "adu": 4554,
  "erman": 4555,
  "eing": 4556,
  "Ġoli": 4557,
  "ence": 4558,
  "Ġsple": 4559,
  "Ġbour": 4560,
  "Ġrid": 4561,
  "Ġmagnet": 4562,
  "Ġfun": 4563,
  "Ġmus": 4564,
  "oso": 4565,
  "Ġexpres": 4566,
  "tro": 4567,
  "pol": 4568,
  "Ġclient": 4569,
  "Ġcafes": 4570,
  "ylv": 4571,
  "ock": 4572,
  "Ġmess": 4573,
  "Ġfo": 4574,
  "Ġstamp": 4575,
  "iche": 4576,
  "Ġly": 4577,
  "liter": 4578,
  "Ġplane": 4579,
  "Ġpam": 4580,
  "Ġmay": 4581,
  "Ġpur": 4582,
  "Ġbrother": 4583,
  "Ġaa": 4584,
  "Ġconsensus": 4585,
  "Ġcong": 4586,
  "Ġcand": 4587,
  "Ġminist": 4588,
  "Ġimp": 4589,
  "inea": 4590,
  "adam": 4591,
  "path": 4592,
  "Ġmotiv": 4593,
  "Ġtopp": 4594,
  "olit": 4595,
  "Ġdivers": 4596,
  "dre": 4597,
  "lenen": 4598,
  "held": 4599,
  "Ġcontainer": 4600,
  "Ġnec": 4601,
  "Ġlee": 4602,
  "Ġdid": 4603,
  "kal": 4604,
  "ki": 4605,
  "Ġhaz": 4606,
  "Ġjim": 4607,
  "Ġbuck": 4608,
  "Ġschon": 4609,
  "Ġoss": 4610,
  "well": 4611,
  "Ġlaz": 4612,
  "sein": 4613,
  "Ġgouver": 4614,
  "Ġterrorist": 4615,
  "atra": 4616,
  "Ġrestaurants": 4617,
  "erry": 4618,
  "Ġattract": 4619,
  "Ġgenre": 4620,
  "Ġsong": 4621,
  "Ġprogress": 4622,
  "uggest": 4623,
  "iname": 4624,
  "aceut": 4625,
  "Ġlect": 4626,
  "Ġazi": 4627,
  "elli": 4628,
  "mere": 4629,
  "Ġrak": 4630,
  "Ġdisk": 4631,
  "Ġpermit": 4632,
  "Ġfon": 4633,
  "Ġfacil": 4634,
  "inh": 4635,
  "flu": 4636,
  "Ġzone": 4637,
  "Ġclaim": 4638,
  "nk": 4639,
  "Ġus": 4640,
  "Ġexpress": 4641,
  "izont": 4642,
  "Ġimport": 4643,
  "Ġcompliment": 4644,
  "Ġtj": 4645,
  "amas": 4646,
  "Ġsched": 4647,
  "yc": 4648,
  "athan": 4649,
  "Ġherd": 4650,
  "oin": 4651,
  "Ġdrift": 4652,
  "Ġsem": 4653,
  "amera": 4654,
  "bul": 4655,
  "otel": 4656,
  "izabeth": 4657,
  "uint": 4658,
  "Ġsoci": 4659,
  "Ġparade": 4660,
  "nest": 4661,
  "amil": 4662,
  "bara": 4663,
  "antes": 4664,
  "Ġchips": 4665,
  "Ġmeiden": 4666,
  "Ġexcuses": 4667,
  "Ġindustri": 4668,
  "Ġcircus": 4669,
  "oller": 4670,
  "Ġmunch": 4671,
  "spo": 4672,
  "Ġtips": 4673,
  "encia": 4674,
  "Ġtai": 4675,
  "uct": 4676,
  "udent": 4677,
  "oli": 4678,
  "Ġpakistan": 4679,
  "ary": 4680,
  "igit": 4681,
  "Ġlum": 4682,
  "Ġmic": 4683,
  "Ġcock": 4684,
  "Ġsubject": 4685,
  "anic": 4686,
  "Ġnes": 4687,
  "having": 4688,
  "sson": 4689,
  "Ġgaler": 4690,
  "oming": 4691,
  "Ġtransfer": 4692,
  "Ġcontin": 4693,
  "ibel": 4694,
  "orman": 4695,
  "Ġforme": 4696,
  "accept": 4697,
  "inspect": 4698,
  "Ġmonitor": 4699,
  "result": 4700,
  "lage": 4701,
  "tle": 4702,
  "ione": 4703,
  "gz": 4704,
  "Ġgor": 4705,
  "def": 4706,
  "inc": 4707,
  "rec": 4708,
  "Ġroof": 4709,
  "Ġchron": 4710,
  "gom": 4711,
  "iler": 4712,
  "sex": 4713,
  "Ġherb": 4714,
  "mu": 4715,
  "pagina": 4716,
  "Ġillustr": 4717,
  "Ġsuccess": 4718,
  "Ġey": 4719,
  "ty": 4720,
  "verte": 4721,
  "Ġhotels": 4722,
  "rim": 4723,
  "andin": 4724,
  "Ġday": 4725,
  "Ġtrag": 4726,
  "Ġyour": 4727,
  "stub": 4728,
  "emens": 4729,
  "eping": 4730,
  "acc": 4731,
  "Ġwindows": 4732,
  "jur": 4733,
  "oleon": 4734,
  "Ġantibiot": 4735,
  "Ġcorpus": 4736,
  "ackson": 4737,
  "Ġsoft": 4738,
  "analy": 4739,
  "kor": 4740,
  "Ġfest": 4741,
  "enny": 4742,
  "Ġtypes": 4743,
  "Ġsanct": 4744,
  "Ġbis": 4745,
  "iox": 4746,
  "athy": 4747,
  "flow": 4748,
  "erview": 4749,
  "cs": 4750,
  "Ġpla": 4751,
  "Ġnik": 4752,
  "Ġchip": 4753,
  "ref": 4754,
  "Ġpercentage": 4755,
  "nger": 4756,
  "Ġrepresent": 4757,
  "Ġmechan": 4758,
  "atter": 4759,
  "Ġcorr": 4760,
  "Ġdefin": 4761,
  "gent": 4762,
  "Ġconflic": 4763,
  "Ġtend": 4764,
  "Ġplast": 4765,
  "antal": 4766,
  "Ġlar": 4767,
  "cell": 4768,
  "akens": 4769,
  "Ġrav": 4770,
  "tom": 4771,
  "Ġshit": 4772,
  "back": 4773,
  "Ġlav": 4774,
  "Ġsyn": 4775,
  "elly": 4776,
  "Ġcop": 4777,
  "non": 4778,
  "entre": 4779,
  "pping": 4780,
  "Ġdish": 4781,
  "insky": 4782,
  "mol": 4783,
  "Ġkak": 4784,
  "gaard": 4785,
  "ullet": 4786,
  "Ġarist": 4787,
  "Ġbasket": 4788,
  "Ġstore": 4789,
  "Ġsplits": 4790,
  "Ġalk": 4791,
  "pga": 4792,
  "Ġcast": 4793,
  "hev": 4794,
  "Ġhow": 4795,
  "unn": 4796,
  "Ġcameras": 4797,
  "Ġoft": 4798,
  "Ġticket": 4799,
  "Ġnl": 4800,
  "concert": 4801,
  "vie": 4802,
  "start": 4803,
  "team": 4804,
  "Ġsurf": 4805,
  "Ġstab": 4806,
  "illa": 4807,
  "cm": 4808,
  "Ġmedium": 4809,
  "Ġhomo": 4810,
  "Ġcomponent": 4811,
  "Ġsid": 4812,
  "Ġuniverse": 4813,
  "Ġwarmer": 4814,
  "Ġbio": 4815,
  "Ġspin": 4816,
  "emm": 4817,
  "Ġglucose": 4818,
  "Ġteen": 4819,
  "reffen": 4820,
  "atic": 4821,
  "atures": 4822,
  "Ġadvis": 4823,
  "pec": 4824,
  "Ġprovoc": 4825,
  "disc": 4826,
  "Ġnale": 4827,
  "Ġagr": 4828,
  "Ġcree": 4829,
  "Ġbusiness": 4830,
  "acter": 4831,
  "Ġvita": 4832,
  "Ġdis": 4833,
  "emin": 4834,
  "Ġnick": 4835,
  "Ġwei": 4836,
  "uido": 4837,
  "lamp": 4838,
  "Ġladder": 4839,
  "storm": 4840,
  "Ġnar": 4841,
  "deg": 4842,
  "rene": 4843,
  "ella": 4844,
  "Ġsap": 4845,
  "Ġvisite": 4846,
  "Ġconvers": 4847,
  "Ġhalt": 4848,
  "bil": 4849,
  "kh": 4850,
  "Ġnote": 4851,
  "Ġdiagnose": 4852,
  "alten": 4853,
  "sla": 4854,
  "mod": 4855,
  "Ġkut": 4856,
  "Ġfred": 4857,
  "Ġlud": 4858,
  "ations": 4859,
  "dia": 4860,
  "aud": 4861,
  "Ġzav": 4862,
  "imin": 4863,
  "Ġhouse": 4864,
  "record": 4865,
  "Ġwhit": 4866,
  "Ġitalian": 4867,
  "Ġhay": 4868,
  "ofi": 4869,
  "bc": 4870,
  "Ġtheat": 4871,
  "immel": 4872,
  "Ġnom": 4873,
  "Ġlil": 4874,
  "iant": 4875,
  "Ġcontrast": 4876,
  "user": 4877,
  "chet": 4878,
  "Ġfas": 4879,
  "loc": 4880,
  "ature": 4881,
  "Ġbekl": 4882,
  "ead": 4883,
  "box": 4884,
  "Ġconclude": 4885,
  "oksen": 4886,
  "ube": 4887,
  "hr": 4888,
  "college": 4889,
  "andal": 4890,
  "Ġalt": 4891,
  "Ġinteract": 4892,
  "nas": 4893,
  "dv": 4894,
  "psych": 4895,
  "often": 4896,
  "aba": 4897,
  "uma": 4898,
  "Ġsympt": 4899,
  "Ġautob": 4900,
  "Ġlab": 4901,
  "prit": 4902,
  "rank": 4903,
  "vou": 4904,
  "wis": 4905,
  "uide": 4906,
  "rine": 4907,
  "atar": 4908,
  "ibo": 4909,
  "Ġrestaur": 4910,
  "Ġflorida": 4911,
  "mom": 4912,
  "allet": 4913,
  "uum": 4914,
  "que": 4915,
  "orse": 4916,
  "Ġcontr": 4917,
  "Ġfolder": 4918,
  "Ġpond": 4919,
  "Ġitem": 4920,
  "uto": 4921,
  "bol": 4922,
  "Ġcro": 4923,
  "kok": 4924,
  "iske": 4925,
  "Ġlive": 4926,
  "sj": 4927,
  "bero": 4928,
  "Ġcour": 4929,
  "Ġresearch": 4930,
  "esel": 4931,
  "Ġteams": 4932,
  "eck": 4933,
  "Ġtheaters": 4934,
  "Ġpont": 4935,
  "iti": 4936,
  "Ġchamps": 4937,
  "person": 4938,
  "Ġhot": 4939,
  "Ġfc": 4940,
  "istent": 4941,
  "abi": 4942,
  "Ġweb": 4943,
  "dem": 4944,
  "Ġpassage": 4945,
  "nul": 4946,
  "edy": 4947,
  "ulti": 4948,
  "Ġcholesterol": 4949,
  "Ġduo": 4950,
  "Ġcyn": 4951,
  "argument": 4952,
  "kas": 4953,
  "Ġtechnolog": 4954,
  "obs": 4955,
  "cul": 4956,
  "ogh": 4957,
  "akes": 4958,
  "elson": 4959,
  "Ġcontainers": 4960,
  "Ġlost": 4961,
  "eselect": 4962,
  "Ġut": 4963,
  "iso": 4964,
  "uta": 4965,
  "Ġblond": 4966,
  "agon": 4967,
  "idend": 4968,
  "Ġnova": 4969,
  "offers": 4970,
  "Ġtrop": 4971,
  "Ġlis": 4972,
  "obe": 4973,
  "Ġinc": 4974,
  "oste": 4975,
  "Ġod": 4976,
  "jez": 4977,
  "arine": 4978,
  "Ġchamp": 4979,
  "aires": 4980,
  "eff": 4981,
  "dik": 4982,
  "Ġbid": 4983,
  "trans": 4984,
  "probe": 4985,
  "Ġsina": 4986,
  "Ġliber": 4987,
  "Ġalert": 4988,
  "asc": 4989,
  "hum": 4990,
  "astro": 4991,
  "Ġurine": 4992,
  "Ġstar": 4993,
  "Ġpsychiat": 4994,
  "Ġhypoth": 4995,
  "Ġcolomb": 4996,
  "Ġbeat": 4997,
  "uba": 4998,
  "Ġcorner": 4999,
  "erno": 5000,
  "spr": 5001,
  "Ġdarm": 5002,
  "Ġlens": 5003,
  "ures": 5004,
  "belt": 5005,
  "Ġrio": 5006,
  "Ġbombard": 5007,
  "Ġjoy": 5008,
  "udo": 5009,
  "pit": 5010,
  "Ġexter": 5011,
  "Ġtabel": 5012,
  "Ġrecess": 5013,
  "igan": 5014,
  "Ġreflect": 5015,
  "Ġpul": 5016,
  "ache": 5017,
  "Ġmaka": 5018,
  "estro": 5019,
  "32": 5020,
  "auto": 5021,
  "stands": 5022,
  "Ġtez": 5023,
  "ivering": 5024,
  "Ġanaly": 5025,
  "ension": 5026,
  "Ġparad": 5027,
  "Ġcorrespondent": 5028,
  "erner": 5029,
  "Ġfacet": 5030,
  "igr": 5031,
  "ried": 5032,
  "ida": 5033,
  "Ġlyon": 5034,
  "Ġfal": 5035,
  "Ġneuro": 5036,
  "lust": 5037,
  "fw": 5038,
  "Ġtruck": 5039,
  "nings": 5040,
  "here": 5041,
  "has": 5042,
  "Ġdiscipline": 5043,
  "Ġph": 5044,
  "Ġcogn": 5045,
  "Ġmoh": 5046,
  "gas": 5047,
  "Ġstan": 5048,
  "Ġarr": 5049,
  "Ġmigr": 5050,
  "Ġconsum": 5051,
  "Ġdup": 5052,
  "prof": 5053,
  "Ġtext": 5054,
  "drink": 5055,
  "Ġambulance": 5056,
  "foto": 5057,
  "Ġcheck": 5058,
  "Ġnel": 5059,
  "icemail": 5060,
  "Ġcontent": 5061,
  "Ġpenis": 5062,
  "Ġkur": 5063,
  "Ġmoz": 5064,
  "orea": 5065,
  "tern": 5066,
  "Ġroma": 5067,
  "ji": 5068,
  "Ġnarc": 5069,
  "Ġwis": 5070,
  "oran": 5071,
  "ilton": 5072,
  "irs": 5073,
  "Ġcn": 5074,
  "Ġgrave": 5075,
  "quet": 5076,
  "eri": 5077,
  "chan": 5078,
  "iculture": 5079,
  "ongo": 5080,
  "Ġhuy": 5081,
  "Ġscouts": 5082,
  "Ġdig": 5083,
  "Ġmik": 5084,
  "Ġoct": 5085,
  "Ġwes": 5086,
  "kc": 5087,
  "Ġmodule": 5088,
  "Ġprog": 5089,
  "yp": 5090,
  "Ġoz": 5091,
  "Ġprocure": 5092,
  "gp": 5093,
  "itte": 5094,
  "uge": 5095,
  "Ġforum": 5096,
  "Ġvolume": 5097,
  "abis": 5098,
  "enza": 5099,
  "code": 5100,
  "Ġcert": 5101,
  "utt": 5102,
  "intern": 5103,
  "Ġcompagn": 5104,
  "Ġalma": 5105,
  "egend": 5106,
  "Ġwollen": 5107,
  "Ġspit": 5108,
  "hist": 5109,
  "Ġfit": 5110,
  "Ġnostr": 5111,
  "irst": 5112,
  "ume": 5113,
  "uns": 5114,
  "Ġbah": 5115,
  "Ġmais": 5116,
  "Ġcat": 5117,
  "eco": 5118,
  "ining": 5119,
  "Ġinf": 5120,
  "Ġstunt": 5121,
  "Ġmarine": 5122,
  "Ġbrave": 5123,
  "Ġpuzz": 5124,
  "oline": 5125,
  "oze": 5126,
  "Ġelekt": 5127,
  "Ġpint": 5128,
  "Ġgrill": 5129,
  "scar": 5130,
  "ichael": 5131,
  "Ġlut": 5132,
  "mad": 5133,
  "Ġbeck": 5134,
  "jos": 5135,
  "Ġdip": 5136,
  "serie": 5137,
  "aman": 5138,
  "Ġcall": 5139,
  "atum": 5140,
  "Ġneut": 5141,
  "Ġprostit": 5142,
  "ajax": 5143,
  "Ġaqu": 5144,
  "oppers": 5145,
  "esign": 5146,
  "route": 5147,
  "spe": 5148,
  "12": 5149,
  "Ġhockey": 5150,
  "Ġnos": 5151,
  "otyp": 5152,
  "kees": 5153,
  "Ġrun": 5154,
  "Ġtem": 5155,
  "Ġmas": 5156,
  "match": 5157,
  "Ġdetective": 5158,
  "pg": 5159,
  "Ġplanet": 5160,
  "Ġkem": 5161,
  "iba": 5162,
  "Ġappl": 5163,
  "Ġparen": 5164,
  "Ġregional": 5165,
  "Ġflank": 5166,
  "Ġeval": 5167,
  "Ġhandle": 5168,
  "Ġtotal": 5169,
  "gn": 5170,
  "iment": 5171,
  "Ġgros": 5172,
  "Ġrepar": 5173,
  "pk": 5174,
  "sted": 5175,
  "Ġintr": 5176,
  "Ġimpact": 5177,
  "Ġrails": 5178,
  "ossier": 5179,
  "Ġbin": 5180,
  "Ġinstinct": 5181,
  "Ġmur": 5182,
  "Ġenc": 5183,
  "Ġhur": 5184,
  "enger": 5185,
  "Ġsic": 5186,
  "dar": 5187,
  "Ġsie": 5188,
  "Ġeuropean": 5189,
  "edit": 5190,
  "Ġrival": 5191,
  "Ġhosp": 5192,
  "Ġkel": 5193,
  "Ġhill": 5194,
  "uart": 5195,
  "arding": 5196,
  "rech": 5197,
  "tas": 5198,
  "osp": 5199,
  "alon": 5200,
  "Ġpill": 5201,
  "Ġsynchron": 5202,
  "way": 5203,
  "endar": 5204,
  "Ġadam": 5205,
  "Ġmia": 5206,
  "Ġmenu": 5207,
  "alth": 5208,
  "ienne": 5209,
  "othy": 5210,
  "ums": 5211,
  "illes": 5212,
  "Ġbat": 5213,
  "email": 5214,
  "Ġonde": 5215,
  "Ġsports": 5216,
  "phil": 5217,
  "real": 5218,
  "Ġdos": 5219,
  "Ġnigeria": 5220,
  "Ġpic": 5221,
  "pire": 5222,
  "Ġthi": 5223,
  "angs": 5224,
  "field": 5225,
  "Ġsit": 5226,
  "nten": 5227,
  "odem": 5228,
  "amide": 5229,
  "letters": 5230,
  "inker": 5231,
  "si": 5232,
  "Ġinterpreter": 5233,
  "Ġcli": 5234,
  "uard": 5235,
  "yan": 5236,
  "ysis": 5237,
  "Ġdied": 5238,
  "requ": 5239,
  "elsius": 5240,
  "for": 5241,
  "Ġvend": 5242,
  "mie": 5243,
  "inf": 5244,
  "Ġmole": 5245,
  "inson": 5246,
  "Ġhern": 5247,
  "encent": 5248,
  "erre": 5249,
  "Ġque": 5250,
  "etz": 5251,
  "Ġrum": 5252,
  "Ġmechanism": 5253,
  "ombine": 5254,
  "Ġfer": 5255,
  "clubs": 5256,
  "Ġcontinent": 5257,
  "ory": 5258,
  "Ġperman": 5259,
  "tim": 5260,
  "Ġformat": 5261,
  "Ġadress": 5262,
  "iman": 5263,
  "Ġsuk": 5264,
  "ved": 5265,
  "Ġved": 5266,
  "Ġmah": 5267,
  "Ġans": 5268,
  "Ġsun": 5269,
  "Ġrubber": 5270,
  "ington": 5271,
  "lass": 5272,
  "Ġcaf": 5273,
  "chema": 5274,
  "low": 5275,
  "ally": 5276,
  "Ġastr": 5277,
  "Ġplatform": 5278,
  "films": 5279,
  "Ġtan": 5280,
  "Ġcamer": 5281,
  "Ġveget": 5282,
  "rob": 5283,
  "Ġbay": 5284,
  "uth": 5285,
  "Ġbunker": 5286,
  "Ġvil": 5287,
  "dad": 5288,
  "Ġjen": 5289,
  "Ġfle": 5290,
  "Ġcola": 5291,
  "Ġweekends": 5292,
  "orf": 5293,
  "cern": 5294,
  "exp": 5295,
  "umin": 5296,
  "Ġhamburg": 5297,
  "Ġrisk": 5298,
  "Ġcocaine": 5299,
  "adge": 5300,
  "orca": 5301,
  "mist": 5302,
  "otor": 5303,
  "Ġfire": 5304,
  "hold": 5305,
  "Ġdh": 5306,
  "Ġult": 5307,
  "Ġflats": 5308,
  "Ġcenter": 5309,
  "Ġingredient": 5310,
  "Ġpresidents": 5311,
  "Ġplanning": 5312,
  "Ġopens": 5313,
  "ailand": 5314,
  "Ġauth": 5315,
  "Ġengagement": 5316,
  "Ġfotograf": 5317,
  "urf": 5318,
  "Ġdeleg": 5319,
  "Ġtob": 5320,
  "Ġrelief": 5321,
  "idis": 5322,
  "Ġneur": 5323,
  "stvo": 5324,
  "Ġknack": 5325,
  "vet": 5326,
  "Ġlent": 5327,
  "unit": 5328,
  "ibil": 5329,
  "apro": 5330,
  "shal": 5331,
  "omens": 5332,
  "mot": 5333,
  "azer": 5334,
  "plit": 5335,
  "oub": 5336,
  "eros": 5337,
  "Ġmenstr": 5338,
  "aura": 5339,
  "Ġverze": 5340,
  "chrom": 5341,
  "Ġcolon": 5342,
  "mass": 5343,
  "Ġspl": 5344,
  "aph": 5345,
  "Ġpony": 5346,
  "Ġintellig": 5347,
  "Ġchili": 5348,
  "igo": 5349,
  "ala": 5350,
  "Ġsober": 5351,
  "Ġtir": 5352,
  "Ġblack": 5353,
  "ric": 5354,
  "agh": 5355,
  "Ġheg": 5356,
  "Ġcare": 5357,
  "Ġzoom": 5358,
  "stri": 5359,
  "Ġfrancaise": 5360,
  "Ġmini": 5361,
  "fre": 5362,
  "Ġshell": 5363,
  "Ġtienen": 5364,
  "ogens": 5365,
  "ush": 5366,
  "roll": 5367,
  "Ġinfect": 5368,
  "ilit": 5369,
  "ventus": 5370,
  "verse": 5371,
  "levard": 5372,
  "atk": 5373,
  "Ġbird": 5374,
  "etes": 5375,
  "eam": 5376,
  "mina": 5377,
  "Ġsupers": 5378,
  "ermann": 5379,
  "Ġned": 5380,
  "fb": 5381,
  "Ġsup": 5382,
  "ites": 5383,
  "Ġrv": 5384,
  "iera": 5385,
  "Ġvoc": 5386,
  "usk": 5387,
  "asso": 5388,
  "Ġjane": 5389,
  "Ġconsult": 5390,
  "itr": 5391,
  "Ġparas": 5392,
  "kos": 5393,
  "Ġzun": 5394,
  "akan": 5395,
  "bast": 5396,
  "Ġtiming": 5397,
  "amber": 5398,
  "Ġmonopol": 5399,
  "outs": 5400,
  "Ġpetit": 5401,
  "rence": 5402,
  "Ġlj": 5403,
  "Ġglyc": 5404,
  "bah": 5405,
  "strument": 5406,
  "pare": 5407,
  "paren": 5408,
  "Ġlaptop": 5409,
  "Ġcod": 5410,
  "method": 5411,
  "Ġreserve": 5412,
  "Ġdep": 5413,
  "Ġez": 5414,
  "Ġvv": 5415,
  "Ġproduce": 5416,
  "ened": 5417,
  "Ġmountain": 5418,
  "weep": 5419,
  "lette": 5420,
  "ouv": 5421,
  "Ġmanoe": 5422,
  "Ġbekom": 5423,
  "ords": 5424,
  "kre": 5425,
  "Ġintuit": 5426,
  "Ġlanding": 5427,
  "Ġgave": 5428,
  "Ġvur": 5429,
  "roy": 5430,
  "ammed": 5431,
  "Ġroutine": 5432,
  "rans": 5433,
  "ky": 5434,
  "Ġforma": 5435,
  "Ġdictator": 5436,
  "ville": 5437,
  "need": 5438,
  "Ġpessim": 5439,
  "Ġhits": 5440,
  "angel": 5441,
  "Ġliver": 5442,
  "Ġintact": 5443,
  "isser": 5444,
  "Ġpon": 5445,
  "vore": 5446,
  "Ġlub": 5447,
  "Ġposters": 5448,
  "Ġatmos": 5449,
  "Ġmike": 5450,
  "Ġstrips": 5451,
  "iska": 5452,
  "ervers": 5453,
  "Ġsoap": 5454,
  "Ġsalon": 5455,
  "Ġfik": 5456,
  "ppers": 5457,
  "Ġnice": 5458,
  "sterdam": 5459,
  "Ġkli": 5460,
  "anie": 5461,
  "ylan": 5462,
  "stan": 5463,
  "roat": 5464,
  "Ġedit": 5465,
  "gee": 5466,
  "avia": 5467,
  "Ġway": 5468,
  "Ġsin": 5469,
  "temperature": 5470,
  "ions": 5471,
  "onna": 5472,
  "fra": 5473,
  "Ġunder": 5474,
  "Ġnit": 5475,
  "dub": 5476,
  "Ġprat": 5477,
  "Ġposter": 5478,
  "vere": 5479,
  "Ġhygiene": 5480,
  "more": 5481,
  "Ġimplic": 5482,
  "uchar": 5483,
  "Ġisa": 5484,
  "anni": 5485,
  "Ġdamp": 5486,
  "Ġsemester": 5487,
  "Ġgrace": 5488,
  "ives": 5489,
  "Ġstill": 5490,
  "Ġcoordinator": 5491,
  "aco": 5492,
  "zan": 5493,
  "ofs": 5494,
  "Ġboon": 5495,
  "Ġtay": 5496,
  "paste": 5497,
  "iph": 5498,
  "tf": 5499,
  "Ġcriter": 5500,
  "Ġextras": 5501,
  "ecom": 5502,
  "Ġcolleges": 5503,
  "Ġprocedures": 5504,
  "media": 5505,
  "gu": 5506,
  "transport": 5507,
  "Ġsegment": 5508,
  "meth": 5509,
  "Ġjet": 5510,
  "Ġpres": 5511,
  "essa": 5512,
  "ups": 5513,
  "Ġcass": 5514,
  "Ġled": 5515,
  "bie": 5516,
  "Ġsteward": 5517,
  "Ġtolerant": 5518,
  "Ġprompt": 5519,
  "Ġzad": 5520,
  "tv": 5521,
  "suit": 5522,
  "Ġche": 5523,
  "Ġceremon": 5524,
  "Ġiron": 5525,
  "Ġhall": 5526,
  "arus": 5527,
  "Ġmyst": 5528,
  "aft": 5529,
  "construct": 5530,
  "gift": 5531,
  "gi": 5532,
  "Ġtexas": 5533,
  "oux": 5534,
  "Ġgerman": 5535,
  "Ġlow": 5536,
  "Ġip": 5537,
  "uner": 5538,
  "das": 5539,
  "illo": 5540,
  "sim": 5541,
  "helm": 5542,
  "abs": 5543,
  "Ġmaj": 5544,
  "Ġcolumn": 5545,
  "Ġkaps": 5546,
  "Ġbarbecue": 5547,
  "Ġaster": 5548,
  "reme": 5549,
  "Ġcate": 5550,
  "rina": 5551,
  "enko": 5552,
  "uds": 5553,
  "ej": 5554,
  "Ġvacc": 5555,
  "Ġrover": 5556,
  "Ġnoc": 5557,
  "Ġracism": 5558,
  "function": 5559,
  "3": 5560,
  "cur": 5561,
  "acao": 5562,
  "Ġpole": 5563,
  "lock": 5564,
  "rente": 5565,
  "coc": 5566,
  "ania": 5567,
  "teste": 5568,
  "ava": 5569,
  "Ġdistrib": 5570,
  "Ġgore": 5571,
  "Ġextrem": 5572,
  "Ġfier": 5573,
  "Ġdominant": 5574,
  "Ġcannabis": 5575,
  "Ġcounter": 5576,
  "document": 5577,
  "Ġcinema": 5578,
  "Ġexpert": 5579,
  "Ġshop": 5580,
  "Ġcanvas": 5581,
  "rieb": 5582,
  "ako": 5583,
  "Ġpav": 5584,
  "Ġpomp": 5585,
  "ordering": 5586,
  "Ġexcuse": 5587,
  "opl": 5588,
  "asset": 5589,
  "asmus": 5590,
  "Ġplanta": 5591,
  "Ġstudi": 5592,
  "Ġdeja": 5593,
  "steller": 5594,
  "ents": 5595,
  "Ġdar": 5596,
  "instrument": 5597,
  "ichen": 5598,
  "Ġimplement": 5599,
  "Ġmare": 5600,
  "Ġdies": 5601,
  "orr": 5602,
  "elve": 5603,
  "arme": 5604,
  "Ġinnov": 5605,
  "ellers": 5606,
  "Ġmaster": 5607,
  "izar": 5608,
  "forme": 5609,
  "olv": 5610,
  "eto": 5611,
  "ested": 5612,
  "Ġdia": 5613,
  "Ġarrogant": 5614,
  "cedes": 5615,
  "Ġstip": 5616,
  "Ġpatron": 5617,
  "Ġtaxis": 5618,
  "enever": 5619,
  "stru": 5620,
  "Ġslav": 5621,
  "Ġdev": 5622,
  "alin": 5623,
  "umm": 5624,
  "alarm": 5625,
  "iforn": 5626,
  "tur": 5627,
  "Ġdrag": 5628,
  "trad": 5629,
  "command": 5630,
  "asper": 5631,
  "how": 5632,
  "aim": 5633,
  "edom": 5634,
  "Ġbrill": 5635,
  "rink": 5636,
  "Ġpanel": 5637,
  "artner": 5638,
  "mut": 5639,
  "Ġpaper": 5640,
  "azz": 5641,
  "Ġast": 5642,
  "esc": 5643,
  "avier": 5644,
  "Ġhob": 5645,
  "hy": 5646,
  "alc": 5647,
  "Ġdet": 5648,
  "trib": 5649,
  "Ġoran": 5650,
  "Ġpopular": 5651,
  "Ġiss": 5652,
  "aurus": 5653,
  "meden": 5654,
  "Ġmcc": 5655,
  "Ġbbc": 5656,
  "Ġargent": 5657,
  "dj": 5658,
  "can": 5659,
  "anes": 5660,
  "Ġarsenal": 5661,
  "inning": 5662,
  "Ġkick": 5663,
  "gram": 5664,
  "ador": 5665,
  "moment": 5666,
  "unter": 5667,
  "opus": 5668,
  "akespeare": 5669,
  "Ġconf": 5670,
  "Ġprim": 5671,
  "ieme": 5672,
  "Ġmust": 5673,
  "ordan": 5674,
  "Ġost": 5675,
  "ouver": 5676,
  "Ġchore": 5677,
  "Ġlif": 5678,
  "Ġlegis": 5679,
  "aze": 5680,
  "argon": 5681,
  "esar": 5682,
  "Ġrue": 5683,
  "oko": 5684,
  "Ġiw": 5685,
  "Ġresident": 5686,
  "iente": 5687,
  "uu": 5688,
  "Ġisol": 5689,
  "Ġrail": 5690,
  "Ġmotto": 5691,
  "vise": 5692,
  "kul": 5693,
  "Ġindirect": 5694,
  "Ġbulk": 5695,
  "Ġfundament": 5696,
  "Ġmix": 5697,
  "Ġsubstant": 5698,
  "ircuit": 5699,
  "Ġpresente": 5700,
  "aters": 5701,
  "ethe": 5702,
  "Ġsolo": 5703,
  "iefs": 5704,
  "plits": 5705,
  "ategorie": 5706,
  "irts": 5707,
  "autos": 5708,
  "ace": 5709,
  "Ġfeminist": 5710,
  "Ġecho": 5711,
  "Ġwhisky": 5712,
  "Ġjoe": 5713,
  "Ġtrip": 5714,
  "Ġwaste": 5715,
  "Ġminim": 5716,
  "Ġobsess": 5717,
  "Ġglobal": 5718,
  "dez": 5719,
  "Ġrh": 5720,
  "avi": 5721,
  "avid": 5722,
  "Ġbass": 5723,
  "arseille": 5724,
  "Ġug": 5725,
  "mant": 5726,
  "oter": 5727,
  "oret": 5728,
  "Ġblouse": 5729,
  "ardo": 5730,
  "wang": 5731,
  "iller": 5732,
  "Ġpeel": 5733,
  "nic": 5734,
  "Ġdiner": 5735,
  "Ġorthodox": 5736,
  "store": 5737,
  "tit": 5738,
  "then": 5739,
  "plot": 5740,
  "sher": 5741,
  "Ġimmigr": 5742,
  "vv": 5743,
  "Ġlak": 5744,
  "lete": 5745,
  "Ġever": 5746,
  "asta": 5747,
  "Ġfair": 5748,
  "fon": 5749,
  "show": 5750,
  "emet": 5751,
  "ifica": 5752,
  "fest": 5753,
  "Ġsess": 5754,
  "hte": 5755,
  "aint": 5756,
  "Ġtunnels": 5757,
  "asis": 5758,
  "fn": 5759,
  "ionage": 5760,
  "Ġfree": 5761,
  "Ġgarn": 5762,
  "ators": 5763,
  "Ġhipp": 5764,
  "igans": 5765,
  "Ġeduc": 5766,
  "opro": 5767,
  "Ġrecon": 5768,
  "itas": 5769,
  "Ġelite": 5770,
  "naissance": 5771,
  "onio": 5772,
  "new": 5773,
  "Ġgust": 5774,
  "ermo": 5775,
  "Ġego": 5776,
  "Ġmanagers": 5777,
  "asha": 5778,
  "cken": 5779,
  "asp": 5780,
  "Ġremed": 5781,
  "Ġrs": 5782,
  "onet": 5783,
  "Ġua": 5784,
  "fm": 5785,
  "Ġsquash": 5786,
  "hm": 5787,
  "Ġspar": 5788,
  "ancer": 5789,
  "partners": 5790,
  "apl": 5791,
  "Ġrelaxed": 5792,
  "Ġadjunct": 5793,
  "Ġcasino": 5794,
  "erto": 5795,
  "nze": 5796,
  "Ġmex": 5797,
  "Ġjelly": 5798,
  "Ġpuls": 5799,
  "resident": 5800,
  "ckett": 5801,
  "opol": 5802,
  "Ġdata": 5803,
  "Ġinfo": 5804,
  "Ġlamb": 5805,
  "Ġprovincia": 5806,
  "abil": 5807,
  "dep": 5808,
  "Ġconform": 5809,
  "loon": 5810,
  "ea": 5811,
  "init": 5812,
  "Ġadequ": 5813,
  "Ġeh": 5814,
  "Ġnast": 5815,
  "Ġposition": 5816,
  "unct": 5817,
  "Ġpend": 5818,
  "Ġattent": 5819,
  "lect": 5820,
  "Ġlul": 5821,
  "Ġold": 5822,
  "Ġvb": 5823,
  "Ġic": 5824,
  "sy": 5825,
  "Ġclass": 5826,
  "inks": 5827,
  "Ġcement": 5828,
  "Ġdog": 5829,
  "Ġnal": 5830,
  "arma": 5831,
  "Ġjeep": 5832,
  "kol": 5833,
  "jack": 5834,
  "fred": 5835,
  "sam": 5836,
  "Ġhim": 5837,
  "Ġfee": 5838,
  "reu": 5839,
  "ewater": 5840,
  "Ġserve": 5841,
  "apping": 5842,
  "got": 5843,
  "fgang": 5844,
  "jac": 5845,
  "partner": 5846,
  "Ġtimes": 5847,
  "Ġlangu": 5848,
  "Ġcool": 5849,
  "uft": 5850,
  "datum": 5851,
  "bin": 5852,
  "Ġreflex": 5853,
  "brig": 5854,
  "iami": 5855,
  "Ġspons": 5856,
  "Ġdul": 5857,
  "dam": 5858,
  "Ġjoke": 5859,
  "icum": 5860,
  "Ġsav": 5861,
  "oving": 5862,
  "Ġblink": 5863,
  "vos": 5864,
  "imir": 5865,
  "ows": 5866,
  "hat": 5867,
  "Ġapo": 5868,
  "serv": 5869,
  "sub": 5870,
  "utter": 5871,
  "Ġsire": 5872,
  "Ġtract": 5873,
  "prevent": 5874,
  "race": 5875,
  "Ġford": 5876,
  "Ġmakers": 5877,
  "seven": 5878,
  "upport": 5879,
  "etect": 5880,
  "stone": 5881,
  "sport": 5882,
  "anon": 5883,
  "strand": 5884,
  "jets": 5885,
  "Ġonline": 5886,
  "pf": 5887,
  "Ġhelm": 5888,
  "cept": 5889,
  "Ġhyper": 5890,
  "etail": 5891,
  "Ġrevolution": 5892,
  "Ġemanc": 5893,
  "raf": 5894,
  "Ġvagina": 5895,
  "card": 5896,
  "Ġsek": 5897,
  "Ġperu": 5898,
  "andre": 5899,
  "Ġkiss": 5900,
  "Ġhyster": 5901,
  "ignon": 5902,
  "Ġseminar": 5903,
  "acom": 5904,
  "Ġproper": 5905,
  "ylon": 5906,
  "fol": 5907,
  "iming": 5908,
  "Ġprogramm": 5909,
  "Ġliving": 5910,
  "arp": 5911,
  "Ġonto": 5912,
  "Ġmedial": 5913,
  "otechn": 5914,
  "afa": 5915,
  "Ġuk": 5916,
  "Ġwent": 5917,
  "Ġpact": 5918,
  "Ġhistoric": 5919,
  "Ġrico": 5920,
  "rell": 5921,
  "Ġhey": 5922,
  "fac": 5923,
  "cherche": 5924,
  "Ġao": 5925,
  "iper": 5926,
  "Ġmem": 5927,
  "cap": 5928,
  "pering": 5929,
  "laden": 5930,
  "clud": 5931,
  "iez": 5932,
  "Ġmit": 5933,
  "Ġadequate": 5934,
  "own": 5935,
  "Ġcomp": 5936,
  "arium": 5937,
  "Ġbase": 5938,
  "Ġclown": 5939,
  "oped": 5940,
  "acad": 5941,
  "Ġwur": 5942,
  "ichi": 5943,
  "Ġruth": 5944,
  "Ġsaldo": 5945,
  "Ġeleg": 5946,
  "arry": 5947,
  "lege": 5948,
  "Ġrepertoire": 5949,
  "rail": 5950,
  "Ġtang": 5951,
  "heet": 5952,
  "gun": 5953,
  "pir": 5954,
  "Ġgy": 5955,
  "Ġtumor": 5956,
  "jamin": 5957,
  "Ġmast": 5958,
  "Ġobserver": 5959,
  "enga": 5960,
  "urger": 5961,
  "emann": 5962,
  "empt": 5963,
  "ongs": 5964,
  "Ġbrun": 5965,
  "Ġlor": 5966,
  "azon": 5967,
  "Ġpara": 5968,
  "Ġgrat": 5969,
  "Ġteh": 5970,
  "Ġtul": 5971,
  "Ġdemon": 5972,
  "Ġstout": 5973,
  "Ġroyal": 5974,
  "Ġinne": 5975,
  "Ġmakeup": 5976,
  "ento": 5977,
  "Ġbut": 5978,
  "Ġrose": 5979,
  "Ġnor": 5980,
  "Ġgrind": 5981,
  "leep": 5982,
  "Ġsein": 5983,
  "Ġuni": 5984,
  "Ġroutes": 5985,
  "rage": 5986,
  "enton": 5987,
  "Ġrtl": 5988,
  "Ġangels": 5989,
  "check": 5990,
  "rogen": 5991,
  "ami": 5992,
  "Ġking": 5993,
  "Ġgay": 5994,
  "Ġstabil": 5995,
  "Ġsel": 5996,
  "owns": 5997,
  "ves": 5998,
  "claim": 5999,
  "Ġtermin": 6000,
  "Ġheroine": 6001,
  "Ġantiqu": 6002,
  "Ġdot": 6003,
  "oston": 6004,
  "Ġig": 6005,
  "comm": 6006,
  "Ġsandy": 6007,
  "Ġsites": 6008,
  "Ġbott": 6009,
  "Ġkarak": 6010,
  "dw": 6011,
  "Ġseries": 6012,
  "Ġinhal": 6013,
  "Ġzoo": 6014,
  "Ġdonne": 6015,
  "Ġbarn": 6016,
  "imeters": 6017,
  "assi": 6018,
  "imbabwe": 6019,
  "bridge": 6020,
  "bill": 6021,
  "Ġdenn": 6022,
  "Ġalta": 6023,
  "Ġpair": 6024,
  "Ġammon": 6025,
  "andy": 6026,
  "Ġtraged": 6027,
  "Ġvic": 6028,
  "Ġhyp": 6029,
  "Ġslogans": 6030,
  "Ġmost": 6031,
  "Ġchicago": 6032,
  "atal": 6033,
  "Ġagents": 6034,
  "Ġrt": 6035,
  "Ġcoll": 6036,
  "ssl": 6037,
  "Ġbats": 6038,
  "Ġpseud": 6039,
  "sf": 6040,
  "Ġbj": 6041,
  "tent": 6042,
  "hong": 6043,
  "mons": 6044,
  "taire": 6045,
  "jee": 6046,
  "Ġspiritual": 6047,
  "Ġexploit": 6048,
  "Ġvideos": 6049,
  "Ġpall": 6050,
  "dg": 6051,
  "mit": 6052,
  "Ġporn": 6053,
  "sorry": 6054,
  "ynthia": 6055,
  "prus": 6056,
  "anmar": 6057,
  "orient": 6058,
  "city": 6059,
  "gren": 6060,
  "eli": 6061,
  "Ġindic": 6062,
  "Ġdepot": 6063,
  "Ġsv": 6064,
  "Ġaspir": 6065,
  "ateur": 6066,
  "Ġinterrupt": 6067,
  "Ġspeech": 6068,
  "leine": 6069,
  "help": 6070,
  "ools": 6071,
  "uls": 6072,
  "lett": 6073,
  "np": 6074,
  "Ġrund": 6075,
  "Ġfemin": 6076,
  "Ġsir": 6077,
  "ulle": 6078,
  "otes": 6079,
  "ungalow": 6080,
  "Ġjunior": 6081,
  "Ġtap": 6082,
  "fk": 6083,
  "aya": 6084,
  "Ġzig": 6085,
  "Ġhus": 6086,
  "affe": 6087,
  "ower": 6088,
  "Ġmanuscript": 6089,
  "Ġscept": 6090,
  "Ġsop": 6091,
  "fant": 6092,
  "temp": 6093,
  "Ġfour": 6094,
  "rak": 6095,
  "Ġaliment": 6096,
  "Ġpropaganda": 6097,
  "Ġcort": 6098,
  "inaire": 6099,
  "Ġclan": 6100,
  "ught": 6101,
  "Ġatt": 6102,
  "obra": 6103,
  "Ġtilt": 6104,
  "Ġgard": 6105,
  "Ġalice": 6106,
  "Ġrod": 6107,
  "Ġure": 6108,
  "Ġpizza": 6109,
  "Ġdop": 6110,
  "Ġcrypt": 6111,
  "Ġitems": 6112,
  "Ġjub": 6113,
  "Ġexper": 6114,
  "ismus": 6115,
  "Ġnah": 6116,
  "airs": 6117,
  "icken": 6118,
  "lers": 6119,
  "abl": 6120,
  "Ġhome": 6121,
  "fee": 6122,
  "ucc": 6123,
  "Ġmaker": 6124,
  "orders": 6125,
  "azu": 6126,
  "sett": 6127,
  "Ġprostitut": 6128,
  "Ġcalam": 6129,
  "pay": 6130,
  "Ġweren": 6131,
  "Ġwars": 6132,
  "kip": 6133,
  "indy": 6134,
  "qua": 6135,
  "etri": 6136,
  "ordon": 6137,
  "indh": 6138,
  "aska": 6139,
  "Ġocean": 6140,
  "Ġloos": 6141,
  "stk": 6142,
  "Ġbritish": 6143,
  "etine": 6144,
  "Ġfrankfurt": 6145,
  "colo": 6146,
  "Ġgraves": 6147,
  "cus": 6148,
  "Ġdown": 6149,
  "Ġpose": 6150,
  "Ġmong": 6151,
  "erin": 6152,
  "Ġnorth": 6153,
  "dir": 6154,
  "ullah": 6155,
  "stations": 6156,
  "Ġvirgin": 6157,
  "mir": 6158,
  "amine": 6159,
  "Ġmonarch": 6160,
  "cas": 6161,
  "Ġexperts": 6162,
  "lab": 6163,
  "look": 6164,
  "izers": 6165,
  "iar": 6166,
  "usting": 6167,
  "Ġtheolog": 6168,
  "ivia": 6169,
  "Ġabsurd": 6170,
  "Ġpassages": 6171,
  "Ġbrochure": 6172,
  "Ġcairo": 6173,
  "Ġcondo": 6174,
  "Ġrecuper": 6175,
  "Ġgiov": 6176,
  "onto": 6177,
  "Ġpower": 6178,
  "Ġprivate": 6179,
  "icer": 6180,
  "cen": 6181,
  "Ġgoals": 6182,
  "Ġvir": 6183,
  "Ġevac": 6184,
  "jak": 6185,
  "orns": 6186,
  "figure": 6187,
  "Ġwalk": 6188,
  "fet": 6189,
  "ci": 6190,
  "tam": 6191,
  "Ġadd": 6192,
  "Ġsandwiches": 6193,
  "opot": 6194,
  "gger": 6195,
  "nev": 6196,
  "Ġrosa": 6197,
  "after": 6198,
  "Ġmilitant": 6199,
  "Ġchees": 6200,
  "Ġperk": 6201,
  "wm": 6202,
  "atz": 6203,
  "Ġdifferent": 6204,
  "aspect": 6205,
  "porte": 6206,
  "Ġcorridor": 6207,
  "omin": 6208,
  "Ġfant": 6209,
  "Ġum": 6210,
  "felt": 6211,
  "Ġdys": 6212,
  "rif": 6213,
  "inho": 6214,
  "tl": 6215,
  "loops": 6216,
  "Ġyog": 6217,
  "iena": 6218,
  "ises": 6219,
  "idders": 6220,
  "ugged": 6221,
  "compet": 6222,
  "isco": 6223,
  "Ġterritor": 6224,
  "Ġcirca": 6225,
  "Ġless": 6226,
  "lings": 6227,
  "Ġbatter": 6228,
  "Ġalbum": 6229,
  "Ġtiener": 6230,
  "rive": 6231,
  "istr": 6232,
  "Ġcompost": 6233,
  "arken": 6234,
  "acha": 6235,
  "Ġbarr": 6236,
  "Ġbizarre": 6237,
  "Ġpsycho": 6238,
  "went": 6239,
  "Ġgrav": 6240,
  "eprom": 6241,
  "avers": 6242,
  "Ġchic": 6243,
  "nerg": 6244,
  "fter": 6245,
  "Ġscenes": 6246,
  "Ġorders": 6247,
  "Ġpath": 6248,
  "process": 6249,
  "house": 6250,
  "Ġback": 6251,
  "Ġconnect": 6252,
  "Ġbam": 6253,
  "Ġbare": 6254,
  "quis": 6255,
  "Ġwww": 6256,
  "gw": 6257,
  "ogs": 6258,
  "cons": 6259,
  "Ġparam": 6260,
  "landing": 6261,
  "run": 6262,
  "osit": 6263,
  "Ġanth": 6264,
  "anners": 6265,
  "Ġaccount": 6266,
  "ental": 6267,
  "gings": 6268,
  "Ġfireworks": 6269,
  "ways": 6270,
  "Ġsmart": 6271,
  "Ġoperation": 6272,
  "journal": 6273,
  "owa": 6274,
  "gba": 6275,
  "Ġbout": 6276,
  "hardt": 6277,
  "Ġstere": 6278,
  "cker": 6279,
  "Ġautism": 6280,
  "uo": 6281,
  "rei": 6282,
  "super": 6283,
  "uper": 6284,
  "Ġreader": 6285,
  "bee": 6286,
  "Ġtractor": 6287,
  "Ġcampus": 6288,
  "ulture": 6289,
  "omo": 6290,
  "ault": 6291,
  "wp": 6292,
  "ury": 6293,
  "abeth": 6294,
  "conf": 6295,
  "Ġsou": 6296,
  "ango": 6297,
  "Ġverso": 6298,
  "upro": 6299,
  "Ġmonde": 6300,
  "Ġax": 6301,
  "Ġcalorie": 6302,
  "Ġmop": 6303,
  "yme": 6304,
  "Ġshock": 6305,
  "Ġzur": 6306,
  "Ġchi": 6307,
  "umba": 6308,
  "Ġbaz": 6309,
  "ervals": 6310,
  "ski": 6311,
  "engage": 6312,
  "esa": 6313,
  "Ġkaz": 6314,
  "Ġformal": 6315,
  "Ġsum": 6316,
  "inet": 6317,
  "Ġpalm": 6318,
  "structure": 6319,
  "ummer": 6320,
  "Ġhab": 6321,
  "Ġtex": 6322,
  "Ġfried": 6323,
  "ohl": 6324,
  "ussels": 6325,
  "Ġhann": 6326,
  "ived": 6327,
  "ansa": 6328,
  "usiness": 6329,
  "Ġsant": 6330,
  "uno": 6331,
  "Ġcorporate": 6332,
  "actual": 6333,
  "Ġdann": 6334,
  "Ġkah": 6335,
  "anus": 6336,
  "arakter": 6337,
  "Ġmultim": 6338,
  "aniem": 6339,
  "inx": 6340,
  "Ġexpertise": 6341,
  "orer": 6342,
  "Ġsingle": 6343,
  "Ġaudit": 6344,
  "Ġcommercial": 6345,
  "Ġtanks": 6346,
  "sth": 6347,
  "aln": 6348,
  "zoom": 6349,
  "fc": 6350,
  "Ġecon": 6351,
  "urre": 6352,
  "Ġakt": 6353,
  "Ġprogrammer": 6354,
  "tak": 6355,
  "culture": 6356,
  "Ġconvent": 6357,
  "Ġende": 6358,
  "Ġdrum": 6359,
  "Ġindividual": 6360,
  "wh": 6361,
  "kat": 6362,
  "Ġjus": 6363,
  "fos": 6364,
  "Ġtwist": 6365,
  "Ġimmense": 6366,
  "Ġbelle": 6367,
  "Ġire": 6368,
  "ipline": 6369,
  "Ġmoll": 6370,
  "Ġradios": 6371,
  "Ġlad": 6372,
  "ombo": 6373,
  "annel": 6374,
  "Ġdecl": 6375,
  "Ġplace": 6376,
  "Ġnama": 6377,
  "boss": 6378,
  "Ġmyth": 6379,
  "append": 6380,
  "Ġfore": 6381,
  "Ġaluminium": 6382,
  "Ġerb": 6383,
  "rup": 6384,
  "adio": 6385,
  "ippers": 6386,
  "leet": 6387,
  "Ġconcent": 6388,
  "Ġalan": 6389,
  "Ġjung": 6390,
  "ustr": 6391,
  "rub": 6392,
  "ully": 6393,
  "embro": 6394,
  "Ġassort": 6395,
  "elic": 6396,
  "Ġdt": 6397,
  "Ġikea": 6398,
  "rio": 6399,
  "Ġpeer": 6400,
  "fare": 6401,
  "achines": 6402,
  "pin": 6403,
  "mpjes": 6404,
  "Ġabrupt": 6405,
  "ankan": 6406,
  "Ġfuck": 6407,
  "Ġshirt": 6408,
  "bart": 6409,
  "aining": 6410,
  "Ġreun": 6411,
  "Ġtherm": 6412,
  "argo": 6413,
  "Ġmelanch": 6414,
  "vg": 6415,
  "Ġprot": 6416,
  "Ġbuffer": 6417,
  "Ġapost": 6418,
  "sid": 6419,
  "worm": 6420,
  "fans": 6421,
  "rites": 6422,
  "Ġull": 6423,
  "Ġslogan": 6424,
  "Ġfolders": 6425,
  "iano": 6426,
  "arrison": 6427,
  "aces": 6428,
  "star": 6429,
  "Ġmagazine": 6430,
  "erne": 6431,
  "ollywood": 6432,
  "icom": 6433,
  "manager": 6434,
  "Ġserge": 6435,
  "Ġlake": 6436,
  "tour": 6437,
  "Ġobserv": 6438,
  "Ġlegal": 6439,
  "deaux": 6440,
  "unes": 6441,
  "Ġdetect": 6442,
  "Ġplay": 6443,
  "Ġhes": 6444,
  "present": 6445,
  "rug": 6446,
  "Ġreform": 6447,
  "Ġeo": 6448,
  "Ġsponsor": 6449,
  "Ġescorte": 6450,
  "Ġrobots": 6451,
  "Ġfolk": 6452,
  "Ġdoes": 6453,
  "Ġtrade": 6454,
  "Ġperfection": 6455,
  "Ġbm": 6456,
  "dis": 6457,
  "anel": 6458,
  "other": 6459,
  "lou": 6460,
  "omi": 6461,
  "rita": 6462,
  "Ġack": 6463,
  "wald": 6464,
  "igm": 6465,
  "Ġzer": 6466,
  "afb": 6467,
  "Ġgall": 6468,
  "cks": 6469,
  "wg": 6470,
  "gst": 6471,
  "Ġout": 6472,
  "Ġcassette": 6473,
  "ocument": 6474,
  "atas": 6475,
  "Ġreconstruct": 6476,
  "Ġcru": 6477,
  "wei": 6478,
  "apse": 6479,
  "Ġcart": 6480,
  "ophe": 6481,
  "ulus": 6482,
  "yt": 6483,
  "ettes": 6484,
  "Ġcamb": 6485,
  "Ġcita": 6486,
  "radio": 6487,
  "Ġgenom": 6488,
  "Ġintim": 6489,
  "izo": 6490,
  "Ġvirtue": 6491,
  "Ġregular": 6492,
  "Ġbomb": 6493,
  "rief": 6494,
  "olas": 6495,
  "Ġmeteor": 6496,
  "urer": 6497,
  "Ġsuch": 6498,
  "Ġcalc": 6499,
  "Ġsupport": 6500,
  "Ġprocessor": 6501,
  "ofil": 6502,
  "ierge": 6503,
  "export": 6504,
  "roz": 6505,
  "condition": 6506,
  "odus": 6507,
  "obre": 6508,
  "ingle": 6509,
  "Ġholistic": 6510,
  "gien": 6511,
  "ily": 6512,
  "Ġcard": 6513,
  "ierre": 6514,
  "oj": 6515,
  "Ġempir": 6516,
  "Ġcortex": 6517,
  "Ġnostra": 6518,
  "Ġsheet": 6519,
  "Ġscience": 6520,
  "edef": 6521,
  "agner": 6522,
  "Ġvod": 6523,
  "Ġhonor": 6524,
  "management": 6525,
  "Ġnotas": 6526,
  "doc": 6527,
  "Ġbarric": 6528,
  "web": 6529,
  "0": 6530,
  "Ġmusic": 6531,
  "Ġgeneral": 6532,
  "esto": 6533,
  "Ġjeans": 6534,
  "ross": 6535,
  "Ġkuk": 6536,
  "arb": 6537,
  "lip": 6538,
  "Ġmigraine": 6539,
  "Ġsug": 6540,
  "urch": 6541,
  "Ġreserv": 6542,
  "Ġmission": 6543,
  "riel": 6544,
  "geo": 6545,
  "irc": 6546,
  "Ġwir": 6547,
  "Ġsergeant": 6548,
  "dm": 6549,
  "Ġtep": 6550,
  "Ġarrive": 6551,
  "Ġassoc": 6552,
  "inte": 6553,
  "oping": 6554,
  "ilden": 6555,
  "winter": 6556,
  "Ġproport": 6557,
  "Ġgou": 6558,
  "Ġmonsters": 6559,
  "uchen": 6560,
  "Ġjun": 6561,
  "Ġworkshop": 6562,
  "Ġmasse": 6563,
  "opa": 6564,
  "Ġaus": 6565,
  "leans": 6566,
  "Ġslip": 6567,
  "Ġkits": 6568,
  "unist": 6569,
  "type": 6570,
  "rect": 6571,
  "unders": 6572,
  "idelberg": 6573,
  "Ġdump": 6574,
  "Ġprofess": 6575,
  "outh": 6576,
  "itch": 6577,
  "Ġpien": 6578,
  "typ": 6579,
  "Ġmild": 6580,
  "Ġchant": 6581,
  "indo": 6582,
  "pons": 6583,
  "Ġbik": 6584,
  "mary": 6585,
  "Ġbasil": 6586,
  "andra": 6587,
  "Ġcoup": 6588,
  "5": 6589,
  "Ġfundamental": 6590,
  "aro": 6591,
  "itar": 6592,
  "Ġtrim": 6593,
  "Ġgates": 6594,
  "Ġbrown": 6595,
  "Ġgenocide": 6596,
  "Ġbonus": 6597,
  "ates": 6598,
  "Ġdiscrim": 6599,
  "Ġalbums": 6600,
  "ista": 6601,
  "Ġtransplant": 6602,
  "aval": 6603,
  "Ġprix": 6604,
  "Ġdefect": 6605,
  "elik": 6606,
  "avern": 6607,
  "kek": 6608,
  "autom": 6609,
  "ennie": 6610,
  "green": 6611,
  "ather": 6612,
  "Ġfestivals": 6613,
  "kim": 6614,
  "Ġow": 6615,
  "hotel": 6616,
  "Ġjournal": 6617,
  "Ġcomplic": 6618,
  "oman": 6619,
  "Ġbian": 6620,
  "icky": 6621,
  "Ġtrio": 6622,
  "Ġquasi": 6623,
  "Ġdeclar": 6624,
  "Ġcout": 6625,
  "Ġran": 6626,
  "itect": 6627,
  "cedures": 6628,
  "Ġairlines": 6629,
  "Ġsynth": 6630,
  "Ġrally": 6631,
  "Ġsmith": 6632,
  "acco": 6633,
  "aton": 6634,
  "som": 6635,
  "elu": 6636,
  "Ġcred": 6637,
  "azo": 6638,
  "ogene": 6639,
  "adia": 6640,
  "udies": 6641,
  "Ġrapper": 6642,
  "Ġferv": 6643,
  "Ġafl": 6644,
  "Ġparking": 6645,
  "ocom": 6646,
  "onic": 6647,
  "Ġaccident": 6648,
  "icie": 6649,
  "exam": 6650,
  "Ġastro": 6651,
  "Ġvd": 6652,
  "Ġsponsoring": 6653,
  "iga": 6654,
  "oust": 6655,
  "patrick": 6656,
  "Ġheck": 6657,
  "Ġscooter": 6658,
  "Ġhype": 6659,
  "Ġgreet": 6660,
  "Ġburn": 6661,
  "Ġpanorama": 6662,
  "Ġanim": 6663,
  "aes": 6664,
  "ocol": 6665,
  "Ġblue": 6666,
  "nar": 6667,
  "cf": 6668,
  "Ġcup": 6669,
  "Ġdwar": 6670,
  "Ġrag": 6671,
  "Ġlex": 6672,
  "Ġsentiment": 6673,
  "hoff": 6674,
  "Ġgrip": 6675,
  "omet": 6676,
  "oca": 6677,
  "bib": 6678,
  "ements": 6679,
  "Ġbw": 6680,
  "iri": 6681,
  "Ġblues": 6682,
  "big": 6683,
  "Ġsoph": 6684,
  "Ġbarbar": 6685,
  "zheimer": 6686,
  "lahoma": 6687,
  "iot": 6688,
  "Ġng": 6689,
  "administr": 6690,
  "Ġsix": 6691,
  "Ġnv": 6692,
  "arak": 6693,
  "Ġdiabetes": 6694,
  "Ġrage": 6695,
  "ely": 6696,
  "utta": 6697,
  "Ġroc": 6698,
  "Ġveg": 6699,
  "ifer": 6700,
  "Ġdele": 6701,
  "Ġpension": 6702,
  "Ġrect": 6703,
  "Ġactivist": 6704,
  "deer": 6705,
  "stim": 6706,
  "Ġstages": 6707,
  "Ġassoci": 6708,
  "Ġbp": 6709,
  "Ġscr": 6710,
  "Ġgenie": 6711,
  "Ġmim": 6712,
  "Ġlava": 6713,
  "etta": 6714,
  "Ġcoma": 6715,
  "Ġpup": 6716,
  "pis": 6717,
  "dal": 6718,
  "Ġmane": 6719,
  "row": 6720,
  "becca": 6721,
  "Ġpenn": 6722,
  "cc": 6723,
  "pha": 6724,
  "ump": 6725,
  "ect": 6726,
  "orce": 6727,
  "Ġextern": 6728,
  "amin": 6729,
  "Ġindian": 6730,
  "cret": 6731,
  "Ġlife": 6732,
  "oses": 6733,
  "oya": 6734,
  "Ġsenior": 6735,
  "agu": 6736,
  "Ġgrim": 6737,
  "Ġelegant": 6738,
  "lis": 6739,
  "Ġspoken": 6740,
  "Ġelast": 6741,
  "agg": 6742,
  "hek": 6743,
  "Ġdeport": 6744,
  "kins": 6745,
  "inne": 6746,
  "igu": 6747,
  "Ġpetroleum": 6748,
  "Ġnatural": 6749,
  "wort": 6750,
  "Ġtill": 6751,
  "Ġangel": 6752,
  "Ġwik": 6753,
  "Ġpadd": 6754,
  "Ġdias": 6755,
  "Ġspeed": 6756,
  "Ġpod": 6757,
  "Ġgap": 6758,
  "zz": 6759,
  "restaurant": 6760,
  "Ġexpo": 6761,
  "Ġub": 6762,
  "akter": 6763,
  "Ġarbit": 6764,
  "Ġcath": 6765,
  "Ġlook": 6766,
  "Ġyes": 6767,
  "nop": 6768,
  "standing": 6769,
  "Ġamusement": 6770,
  "ungen": 6771,
  "Ġstones": 6772,
  "Ġfirst": 6773,
  "internet": 6774,
  "steam": 6775,
  "advert": 6776,
  "auer": 6777,
  "most": 6778,
  "Ġinformation": 6779,
  "Ġsenator": 6780,
  "Ġcrash": 6781,
  "ennes": 6782,
  "rod": 6783,
  "Ġgh": 6784,
  "Ġboyc": 6785,
  "oland": 6786,
  "Ġsingapore": 6787,
  "vt": 6788,
  "bbie": 6789,
  "6": 6790,
  "izzly": 6791,
  "bob": 6792,
  "ulia": 6793,
  "Ġjunk": 6794,
  "Ġsky": 6795,
  "vangst": 6796,
  "training": 6797,
  "Ġlep": 6798,
  "adlo": 6799,
  "sts": 6800,
  "Ġsob": 6801,
  "Ġvocab": 6802,
  "Ġciv": 6803,
  "Ġjoint": 6804,
  "Ġbell": 6805,
  "bach": 6806,
  "Ġmatt": 6807,
  "Ġmerc": 6808,
  "inka": 6809,
  "Ġnumero": 6810,
  "ife": 6811,
  "Ġintense": 6812,
  "Ġcrit": 6813,
  "Ġfitness": 6814,
  "atoes": 6815,
  "attend": 6816,
  "Ġbtw": 6817,
  "Ġdilemma": 6818,
  "Ġcompetent": 6819,
  "Ġprestige": 6820,
  "liste": 6821,
  "Ġaggreg": 6822,
  "deb": 6823,
  "atch": 6824,
  "eric": 6825,
  "rieg": 6826,
  "modern": 6827,
  "Ġexpression": 6828,
  "vette": 6829,
  "Ġikke": 6830,
  "Ġrepl": 6831,
  "Ġmek": 6832,
  "Ġmaman": 6833,
  "Ġsik": 6834,
  "isi": 6835,
  "Ġcompact": 6836,
  "awa": 6837,
  "Ġgenres": 6838,
  "anti": 6839,
  "bf": 6840,
  "Ġcontradict": 6841,
  "Ġsalv": 6842,
  "Ġaudio": 6843,
  "Ġmann": 6844,
  "mc": 6845,
  "Ġgazet": 6846,
  "Ġwig": 6847,
  "Ġcollabor": 6848,
  "interpre": 6849,
  "Ġnationalist": 6850,
  "Ġgob": 6851,
  "Ġstudied": 6852,
  "otti": 6853,
  "Ġbody": 6854,
  "esture": 6855,
  "Ġbourgeois": 6856,
  "osa": 6857,
  "iki": 6858,
  "ival": 6859,
  "gal": 6860,
  "umen": 6861,
  "Ġcris": 6862,
  "making": 6863,
  "urus": 6864,
  "pong": 6865,
  "Ġcaptain": 6866,
  "Ġnan": 6867,
  "arius": 6868,
  "amar": 6869,
  "Ġboard": 6870,
  "Ġlyn": 6871,
  "flows": 6872,
  "Ġbrass": 6873,
  "Ġcosa": 6874,
  "Ġallure": 6875,
  "immers": 6876,
  "spark": 6877,
  "unkt": 6878,
  "Ġprofiler": 6879,
  "rogram": 6880,
  "Ġhabitat": 6881,
  "Ġintrodu": 6882,
  "Ġprogramme": 6883,
  "Ġconven": 6884,
  "Ġclose": 6885,
  "anner": 6886,
  "erged": 6887,
  "Ġglass": 6888,
  "Ġms": 6889,
  "Ġsynd": 6890,
  "Ġslur": 6891,
  "eron": 6892,
  "nick": 6893,
  "Ġviz": 6894,
  "entr": 6895,
  "Ġcape": 6896,
  "leon": 6897,
  "nda": 6898,
  "Ġfron": 6899,
  "wn": 6900,
  "Ġjeg": 6901,
  "xford": 6902,
  "Ġted": 6903,
  "Ġofs": 6904,
  "asz": 6905,
  "Ġpenalty": 6906,
  "Ġessay": 6907,
  "Ġviol": 6908,
  "Ġventil": 6909,
  "Ġsuf": 6910,
  "Ġidi": 6911,
  "endor": 6912,
  "Ġtet": 6913,
  "jis": 6914,
  "Ġcra": 6915,
  "etas": 6916,
  "bbe": 6917,
  "fan": 6918,
  "Ġcoupe": 6919,
  "Ġbeau": 6920,
  "sum": 6921,
  "gon": 6922,
  "itrust": 6923,
  "Ġmount": 6924,
  "Ġbook": 6925,
  "tol": 6926,
  "Ġhunter": 6927,
  "aub": 6928,
  "Ġcher": 6929,
  "unden": 6930,
  "olver": 6931,
  "Ġcle": 6932,
  "jp": 6933,
  "Ġober": 6934,
  "platform": 6935,
  "Ġcatalog": 6936,
  "Ġprint": 6937,
  "Ġshe": 6938,
  "Ġlord": 6939,
  "this": 6940,
  "riter": 6941,
  "sst": 6942,
  "Ġinto": 6943,
  "Ġpastor": 6944,
  "Ġtok": 6945,
  "Ġjava": 6946,
  "Ġbuffet": 6947,
  "oga": 6948,
  "board": 6949,
  "kp": 6950,
  "onga": 6951,
  "ainer": 6952,
  "jev": 6953,
  "Ġaver": 6954,
  "autor": 6955,
  "itis": 6956,
  "amo": 6957,
  "umi": 6958,
  "Ġqueen": 6959,
  "elsea": 6960,
  "inking": 6961,
  "ouston": 6962,
  "Ġparty": 6963,
  "arc": 6964,
  "Ġthor": 6965,
  "Ġconcern": 6966,
  "Ġmilan": 6967,
  "Ġnin": 6968,
  "Ġjihad": 6969,
  "fu": 6970,
  "Ġlobby": 6971,
  "ues": 6972,
  "Ġseed": 6973,
  "uez": 6974,
  "hom": 6975,
  "collect": 6976,
  "Ġfocus": 6977,
  "Ġbv": 6978,
  "Ġlabour": 6979,
  "emed": 6980,
  "Ġharms": 6981,
  "ieurs": 6982,
  "lant": 6983,
  "Ġark": 6984,
  "lav": 6985,
  "Ġfinal": 6986,
  "Ġtie": 6987,
  "Ġnef": 6988,
  "Ġlist": 6989,
  "Ġgood": 6990,
  "Ġdeadline": 6991,
  "onse": 6992,
  "Ġwith": 6993,
  "Ġneutral": 6994,
  "Ġdisciplines": 6995,
  "alis": 6996,
  "ultan": 6997,
  "Ġpes": 6998,
  "etti": 6999,
  "Ġimprovis": 7000,
  "Ġhamm": 7001,
  "rels": 7002,
  "Ġprogn": 7003,
  "jav": 7004,
  "Ġambiance": 7005,
  "mask": 7006,
  "Ġjoker": 7007,
  "iac": 7008,
  "Ġjog": 7009,
  "ains": 7010,
  "eket": 7011,
  "allas": 7012,
  "beck": 7013,
  "unte": 7014,
  "nants": 7015,
  "Ġdyn": 7016,
  "Ġoverl": 7017,
  "Ġasi": 7018,
  "Ġkey": 7019,
  "enegro": 7020,
  "Ġcf": 7021,
  "Ġdiesel": 7022,
  "Ġclo": 7023,
  "Ġwissen": 7024,
  "endon": 7025,
  "Ġrd": 7026,
  "roman": 7027,
  "Ġliquid": 7028,
  "Ġprag": 7029,
  "zk": 7030,
  "Ġdeliber": 7031,
  "Ġelse": 7032,
  "Ġcorps": 7033,
  "Ġsnow": 7034,
  "Ġfly": 7035,
  "Ġtus": 7036,
  "Ġreception": 7037,
  "Ġsilver": 7038,
  "anko": 7039,
  "cb": 7040,
  "Ġrobot": 7041,
  "adic": 7042,
  "Ġdoctrine": 7043,
  "umb": 7044,
  "Ġecommerce": 7045,
  "Ġthesis": 7046,
  "Ġfoss": 7047,
  "zones": 7048,
  "Ġpolar": 7049,
  "hei": 7050,
  "Ġparadox": 7051,
  "aug": 7052,
  "Ġproducts": 7053,
  "material": 7054,
  "bag": 7055,
  "obby": 7056,
  "gif": 7057,
  "din": 7058,
  "jest": 7059,
  "wall": 7060,
  "ameleon": 7061,
  "astr": 7062,
  "Ġlevy": 7063,
  "lep": 7064,
  "kuk": 7065,
  "unge": 7066,
  "Ġsadd": 7067,
  "Ġroad": 7068,
  "Ġhakk": 7069,
  "hed": 7070,
  "Ġprest": 7071,
  "Ġprime": 7072,
  "Ġgut": 7073,
  "rende": 7074,
  "ekten": 7075,
  "isl": 7076,
  "map": 7077,
  "Ġdrop": 7078,
  "Ġhost": 7079,
  "Ġsac": 7080,
  "Ġdei": 7081,
  "okes": 7082,
  "Ġcord": 7083,
  "agnet": 7084,
  "pill": 7085,
  "ffic": 7086,
  "rah": 7087,
  "atoria": 7088,
  "rys": 7089,
  "aser": 7090,
  "Ġbiz": 7091,
  "odd": 7092,
  "Ġting": 7093,
  "elin": 7094,
  "Ġcav": 7095,
  "alla": 7096,
  "illian": 7097,
  "Ġserver": 7098,
  "iles": 7099,
  "Ġintensive": 7100,
  "azi": 7101,
  "Ġtub": 7102,
  "Ġai": 7103,
  "conn": 7104,
  "fv": 7105,
  "anth": 7106,
  "elage": 7107,
  "apers": 7108,
  "Ġdipl": 7109,
  "Ġund": 7110,
  "uniform": 7111,
  "Ġmetam": 7112,
  "Ġsout": 7113,
  "Ġurn": 7114,
  "Ġrim": 7115,
  "Ġbn": 7116,
  "oby": 7117,
  "center": 7118,
  "Ġcomedy": 7119,
  "haus": 7120,
  "Ġtablet": 7121,
  "Ġbonne": 7122,
  "Ġbud": 7123,
  "Ġank": 7124,
  "itre": 7125,
  "Ġantig": 7126,
  "estation": 7127,
  "ulo": 7128,
  "nder": 7129,
  "Ġincest": 7130,
  "Ġpoly": 7131,
  "Ġvenez": 7132,
  "Ġdv": 7133,
  "Ġannex": 7134,
  "quette": 7135,
  "job": 7136,
  "Ġsex": 7137,
  "Ġtwo": 7138,
  "china": 7139,
  "erli": 7140,
  "album": 7141,
  "emi": 7142,
  "uku": 7143,
  "aza": 7144,
  "uan": 7145,
  "Ġfif": 7146,
  "beat": 7147,
  "Ġcosta": 7148,
  "lf": 7149,
  "Ġbeach": 7150,
  "Ġtransf": 7151,
  "fect": 7152,
  "arto": 7153,
  "Ġacute": 7154,
  "budget": 7155,
  "Ġretour": 7156,
  "alez": 7157,
  "urope": 7158,
  "Ġmemo": 7159,
  "Ġinterim": 7160,
  "orted": 7161,
  "outers": 7162,
  "Ġsea": 7163,
  "Ġdn": 7164,
  "Ġbana": 7165,
  "onth": 7166,
  "Ġinject": 7167,
  "Ġerot": 7168,
  "idue": 7169,
  "Ġterrorism": 7170,
  "Ġchrom": 7171,
  "Ġshopping": 7172,
  "Ġdollars": 7173,
  "Ġelect": 7174,
  "andi": 7175,
  "agan": 7176,
  "Ġgist": 7177,
  "Ġkafka": 7178,
  "Ġbri": 7179,
  "react": 7180,
  "Ġferr": 7181,
  "ahl": 7182,
  "Ġflora": 7183,
  "Ġmug": 7184,
  "ynn": 7185,
  "jud": 7186,
  "Ġpasta": 7187,
  "Ġorth": 7188,
  "Ġatlas": 7189,
  "ladesh": 7190,
  "Ġcruise": 7191,
  "must": 7192,
  "Ġrevolver": 7193,
  "bell": 7194,
  "meter": 7195,
  "Ġako": 7196,
  "Ġsauna": 7197,
  "icket": 7198,
  "Ġpanor": 7199,
  "Ġele": 7200,
  "Ġmelod": 7201,
  "Ġschl": 7202,
  "sons": 7203,
  "alom": 7204,
  "Ġcommerce": 7205,
  "Ġvt": 7206,
  "Ġpropag": 7207,
  "Ġnok": 7208,
  "abad": 7209,
  "udi": 7210,
  "Ġrebell": 7211,
  "stin": 7212,
  "imed": 7213,
  "antage": 7214,
  "wins": 7215,
  "illas": 7216,
  "Ġgir": 7217,
  "Ġcomplement": 7218,
  "Ġlesbische": 7219,
  "estre": 7220,
  "kov": 7221,
  "Ġcooper": 7222,
  "gf": 7223,
  "Ġsensation": 7224,
  "Ġcoherent": 7225,
  "rock": 7226,
  "ifers": 7227,
  "Ġregist": 7228,
  "Ġcharm": 7229,
  "onis": 7230,
  "idi": 7231,
  "hoo": 7232,
  "atur": 7233,
  "Ġrept": 7234,
  "Ġwrong": 7235,
  "Ġcold": 7236,
  "Ġrelev": 7237,
  "Ġaio": 7238,
  "midt": 7239,
  "Ġhub": 7240,
  "Ġks": 7241,
  "Ġcondition": 7242,
  "object": 7243,
  "alu": 7244,
  "fait": 7245,
  "Ġhei": 7246,
  "Ġconcess": 7247,
  "Ġmale": 7248,
  "ilia": 7249,
  "Ġbull": 7250,
  "ullivan": 7251,
  "Ġferm": 7252,
  "ration": 7253,
  "Ġmata": 7254,
  "Ġbli": 7255,
  "onda": 7256,
  "zent": 7257,
  "Ġpok": 7258,
  "icz": 7259,
  "Ġcla": 7260,
  "emy": 7261,
  "ced": 7262,
  "ascus": 7263,
  "uddy": 7264,
  "rahim": 7265,
  "avis": 7266,
  "Ġfich": 7267,
  "rov": 7268,
  "Ġdiet": 7269,
  "orem": 7270,
  "Ġlike": 7271,
  "Ġreality": 7272,
  "35": 7273,
  "isha": 7274,
  "38": 7275,
  "interval": 7276,
  "Ġdeck": 7277,
  "Ġmitochond": 7278,
  "Ġjab": 7279,
  "Ġrush": 7280,
  "nil": 7281,
  "Ġintake": 7282,
  "Ġzel": 7283,
  "orra": 7284,
  "spor": 7285,
  "icip": 7286,
  "nek": 7287,
  "Ġcontro": 7288,
  "ted": 7289,
  "Ġratt": 7290,
  "emotion": 7291,
  "instant": 7292,
  "fact": 7293,
  "Ġanalog": 7294,
  "73": 7295,
  "Ġhappen": 7296,
  "inite": 7297,
  "Ġgamma": 7298,
  "liche": 7299,
  "Ġmb": 7300,
  "Ġvm": 7301,
  "incident": 7302,
  "Ġsax": 7303,
  "dn": 7304,
  "bots": 7305,
  "Ġforce": 7306,
  "Ġprecis": 7307,
  "hands": 7308,
  "Ġrac": 7309,
  "Ġbinding": 7310,
  "aha": 7311,
  "Ġstarts": 7312,
  "mam": 7313,
  "atient": 7314,
  "Ġtree": 7315,
  "oro": 7316,
  "Ġplot": 7317,
  "Ġagendas": 7318,
  "ifferent": 7319,
  "hus": 7320,
  "ori": 7321,
  "aux": 7322,
  "Ġperce": 7323,
  "Ġplunder": 7324,
  "orus": 7325,
  "thes": 7326,
  "Ġsanta": 7327,
  "Ġcontre": 7328,
  "Ġsatire": 7329,
  "ricia": 7330,
  "uther": 7331,
  "ogg": 7332,
  "nb": 7333,
  "stp": 7334,
  "Ġfascist": 7335,
  "wf": 7336,
  "ril": 7337,
  "emma": 7338,
  "Ġsleep": 7339,
  "issant": 7340,
  "Ġcho": 7341,
  "Ġdein": 7342,
  "orro": 7343,
  "Ġcad": 7344,
  "rette": 7345,
  "Ġimpression": 7346,
  "chwitz": 7347,
  "imde": 7348,
  "ileen": 7349,
  "Ġbroad": 7350,
  "Ġunion": 7351,
  "elfast": 7352,
  "Ġpsyche": 7353,
  "too": 7354,
  "Ġcul": 7355,
  "pert": 7356,
  "Ġsling": 7357,
  "Ġobs": 7358,
  "mast": 7359,
  "upt": 7360,
  "Ġdort": 7361,
  "mund": 7362,
  "Ġmum": 7363,
  "ices": 7364,
  "hend": 7365,
  "krit": 7366,
  "iny": 7367,
  "Ġtug": 7368,
  "Ġnell": 7369,
  "uela": 7370,
  "select": 7371,
  "Ġwhat": 7372,
  "von": 7373,
  "Ġanti": 7374,
  "lez": 7375,
  "were": 7376,
  "cohol": 7377,
  "Ġnews": 7378,
  "Ġmuss": 7379,
  "Ġchurch": 7380,
  "stage": 7381,
  "Ġcq": 7382,
  "istra": 7383,
  "Ġflor": 7384,
  "Ġeffet": 7385,
  "Ġhip": 7386,
  "Ġpac": 7387,
  "aly": 7388,
  "trainer": 7389,
  "Ġrolling": 7390,
  "oder": 7391,
  "ibal": 7392,
  "Ġlady": 7393,
  "opping": 7394,
  "drug": 7395,
  "posium": 7396,
  "klad": 7397,
  "onor": 7398,
  "routes": 7399,
  "Ġcentre": 7400,
  "estr": 7401,
  "abor": 7402,
  "ancy": 7403,
  "Ġbuff": 7404,
  "icit": 7405,
  "Ġradar": 7406,
  "pom": 7407,
  "Ġgraz": 7408,
  "ays": 7409,
  "work": 7410,
  "Ġdistrict": 7411,
  "plement": 7412,
  "verter": 7413,
  "div": 7414,
  "gard": 7415,
  "Ġhappy": 7416,
  "Ġwinds": 7417,
  "Ġwebsites": 7418,
  "Ġcant": 7419,
  "Ġhigh": 7420,
  "Ġsound": 7421,
  "Ġinning": 7422,
  "Ġdoll": 7423,
  "conc": 7424,
  "dog": 7425,
  "pag": 7426,
  "Ġsper": 7427,
  "Ġdude": 7428,
  "Ġaquarium": 7429,
  "Ġopport": 7430,
  "usto": 7431,
  "Ġlille": 7432,
  "Ġpuck": 7433,
  "Ġdivis": 7434,
  "Ġfinalist": 7435,
  "point": 7436,
  "jun": 7437,
  "Ġimag": 7438,
  "fiction": 7439,
  "Ġswing": 7440,
  "valid": 7441,
  "Ġkob": 7442,
  "Ġpots": 7443,
  "Ġindu": 7444,
  "undi": 7445,
  "enso": 7446,
  "cour": 7447,
  "Ġtechnology": 7448,
  "ethoven": 7449,
  "ugo": 7450,
  "Ġclar": 7451,
  "Ġschools": 7452,
  "cross": 7453,
  "Ġlogos": 7454,
  "phe": 7455,
  "Ġskip": 7456,
  "Ġdob": 7457,
  "ouse": 7458,
  "Ġfoc": 7459,
  "Ġiq": 7460,
  "cade": 7461,
  "Ġspaghetti": 7462,
  "Ġrelax": 7463,
  "Ġopportun": 7464,
  "atre": 7465,
  "Ġmenor": 7466,
  "Ġtrav": 7467,
  "Ġgrab": 7468,
  "verts": 7469,
  "Ġcc": 7470,
  "Ġcontinue": 7471,
  "Ġmultimedia": 7472,
  "Ġferry": 7473,
  "iola": 7474,
  "Ġether": 7475,
  "yll": 7476,
  "Ġsocio": 7477,
  "antiago": 7478,
  "Ġblow": 7479,
  "vj": 7480,
  "Ġrin": 7481,
  "Ġkabul": 7482,
  "dee": 7483,
  "Ġavenue": 7484,
  "Ġfou": 7485,
  "Ġberk": 7486,
  "Ġmastur": 7487,
  "Ġtoile": 7488,
  "suz": 7489,
  "irt": 7490,
  "Ġparis": 7491,
  "Ġpoint": 7492,
  "Ġscala": 7493,
  "Ġjc": 7494,
  "gran": 7495,
  "Ġpcs": 7496,
  "iscal": 7497,
  "hl": 7498,
  "ardin": 7499,
  "Ġesper": 7500,
  "Ġsurplus": 7501,
  "codes": 7502,
  "Ġbindings": 7503,
  "ebb": 7504,
  "Ġtart": 7505,
  "Ġmarin": 7506,
  "Ġsera": 7507,
  "Ġnerv": 7508,
  "cock": 7509,
  "Ġepic": 7510,
  "Ġgli": 7511,
  "Ġyar": 7512,
  "ican": 7513,
  "ned": 7514,
  "beit": 7515,
  "leo": 7516,
  "Ġchefs": 7517,
  "ery": 7518,
  "yne": 7519,
  "terdam": 7520,
  "final": 7521,
  "Ġstudios": 7522,
  "umor": 7523,
  "Ġsalmon": 7524,
  "Ġosc": 7525,
  "Ġping": 7526,
  "state": 7527,
  "apan": 7528,
  "ivals": 7529,
  "Ġantis": 7530,
  "Ġelm": 7531,
  "lj": 7532,
  "Ġamateurs": 7533,
  "Ġbins": 7534,
  "Ġeco": 7535,
  "categorie": 7536,
  "marketing": 7537,
  "iedo": 7538,
  "Ġmaid": 7539,
  "Ġorange": 7540,
  "bole": 7541,
  "Ġtransform": 7542,
  "rape": 7543,
  "aur": 7544,
  "lp": 7545,
  "rior": 7546,
  "Ġoc": 7547,
  "adopt": 7548,
  "Ġlac": 7549,
  "Ġratio": 7550,
  "respect": 7551,
  "ibi": 7552,
  "Ġprofessionals": 7553,
  "Ġproced": 7554,
  "paring": 7555,
  "hos": 7556,
  "ippi": 7557,
  "Ġtut": 7558,
  "doctor": 7559,
  "Ġbands": 7560,
  "adb": 7561,
  "igel": 7562,
  "umpt": 7563,
  "Ġdress": 7564,
  "Ġpickup": 7565,
  "Ġcockpit": 7566,
  "Ġbazen": 7567,
  "Ġamerican": 7568,
  "ics": 7569,
  "cam": 7570,
  "uki": 7571,
  "Ġash": 7572,
  "Ġinspire": 7573,
  "Ġkh": 7574,
  "Ġplag": 7575,
  "anh": 7576,
  "enant": 7577,
  "Ġdelta": 7578,
  "Ġimmer": 7579,
  "Ġvoll": 7580,
  "elta": 7581,
  "Ġali": 7582,
  "Ġmarker": 7583,
  "Ġflav": 7584,
  "Ġfilter": 7585,
  "umer": 7586,
  "okers": 7587,
  "Ġrotten": 7588,
  "Ġdecad": 7589,
  "cal": 7590,
  "afen": 7591,
  "Ġstare": 7592,
  "ogne": 7593,
  "hattan": 7594,
  "Ġsumm": 7595,
  "edral": 7596,
  "obo": 7597,
  "Ġfirm": 7598,
  "nuts": 7599,
  "onas": 7600,
  "Ġetter": 7601,
  "Ġspat": 7602,
  "Ġnight": 7603,
  "rien": 7604,
  "ourn": 7605,
  "umont": 7606,
  "Ġkrat": 7607,
  "asma": 7608,
  "Ġquick": 7609,
  "Ġfem": 7610,
  "into": 7611,
  "Ġtrees": 7612,
  "izz": 7613,
  "Ġneuken": 7614,
  "etch": 7615,
  "Ġlondon": 7616,
  "Ġwatt": 7617,
  "odor": 7618,
  "Ġswitch": 7619,
  "Ġhypoc": 7620,
  "ston": 7621,
  "Ġtun": 7622,
  "Ġloot": 7623,
  "Ġsteel": 7624,
  "ekk": 7625,
  "Ġcer": 7626,
  "oters": 7627,
  "alers": 7628,
  "experiment": 7629,
  "Ġpunk": 7630,
  "monton": 7631,
  "giene": 7632,
  "Ġvag": 7633,
  "Ġtravel": 7634,
  "nm": 7635,
  "izzer": 7636,
  "lehem": 7637,
  "iah": 7638,
  "anced": 7639,
  "prov": 7640,
  "ayer": 7641,
  "Ġspi": 7642,
  "uder": 7643,
  "Ġeta": 7644,
  "sin": 7645,
  "iqu": 7646,
  "upe": 7647,
  "mg": 7648,
  "zv": 7649,
  "Ġsupporter": 7650,
  "Ġtamil": 7651,
  "ropolis": 7652,
  "lus": 7653,
  "df": 7654,
  "atl": 7655,
  "Ġparach": 7656,
  "onom": 7657,
  "bg": 7658,
  "Ġindex": 7659,
  "lar": 7660,
  "lene": 7661,
  "entina": 7662,
  "class": 7663,
  "Ġsmo": 7664,
  "Ġpatent": 7665,
  "Ġsplit": 7666,
  "Ġavant": 7667,
  "Ġlug": 7668,
  "Ġlaser": 7669,
  "avy": 7670,
  "Ġrebound": 7671,
  "Ġkeep": 7672,
  "Ġfern": 7673,
  "Ġrout": 7674,
  "ardi": 7675,
  "wick": 7676,
  "lod": 7677,
  "Ġbeige": 7678,
  "Ġparten": 7679,
  "uri": 7680,
  "Ġmade": 7681,
  "Ġanno": 7682,
  "tering": 7683,
  "Ġmoon": 7684,
  "Ġgourmet": 7685,
  "Ġdust": 7686,
  "Ġfj": 7687,
  "avenport": 7688,
  "estruct": 7689,
  "Ġfres": 7690,
  "Ġpis": 7691,
  "requent": 7692,
  "Ġih": 7693,
  "Ġbuy": 7694,
  "Ġfold": 7695,
  "eso": 7696,
  "Ġfut": 7697,
  "andr": 7698,
  "uras": 7699,
  "Ġlov": 7700,
  "Ġsurreal": 7701,
  "Ġversus": 7702,
  "leme": 7703,
  "oding": 7704,
  "Ġcocktail": 7705,
  "Ġkulak": 7706,
  "fff": 7707,
  "eka": 7708,
  "tte": 7709,
  "yk": 7710,
  "isel": 7711,
  "Ġstates": 7712,
  "azine": 7713,
  "reten": 7714,
  "hd": 7715,
  "Ġinte": 7716,
  "ides": 7717,
  "jl": 7718,
  "value": 7719,
  "Ġbureauc": 7720,
  "Ġminimal": 7721,
  "nice": 7722,
  "21": 7723,
  "pz": 7724,
  "Ġanalyses": 7725,
  "Ġsofa": 7726,
  "Ġelit": 7727,
  "ateurs": 7728,
  "zburg": 7729,
  "Ġarms": 7730,
  "segment": 7731,
  "Ġknow": 7732,
  "cv": 7733,
  "Ġjuris": 7734,
  "Ġdiscreet": 7735,
  "Ġdistant": 7736,
  "Ġexpans": 7737,
  "sect": 7738,
  "Ġimmigrant": 7739,
  "Ġcoord": 7740,
  "daq": 7741,
  "slu": 7742,
  "encer": 7743,
  "cka": 7744,
  "pras": 7745,
  "ritz": 7746,
  "Ġthat": 7747,
  "anium": 7748,
  "from": 7749,
  "Ġbedding": 7750,
  "Ġbons": 7751,
  "Ġtrauma": 7752,
  "about": 7753,
  "inese": 7754,
  "wild": 7755,
  "unts": 7756,
  "kf": 7757,
  "ustin": 7758,
  "Ġlei": 7759,
  "erus": 7760,
  "elix": 7761,
  "Ġreve": 7762,
  "vals": 7763,
  "Ġamerica": 7764,
  "Ġextract": 7765,
  "Ġorch": 7766,
  "Ġcontrovers": 7767,
  "Ġfunctional": 7768,
  "pute": 7769,
  "Ġalla": 7770,
  "Ġturf": 7771,
  "gio": 7772,
  "Ġthriller": 7773,
  "Ġcid": 7774,
  "Ġregister": 7775,
  "bp": 7776,
  "idos": 7777,
  "itor": 7778,
  "Ġpek": 7779,
  "resh": 7780,
  "Ġlogo": 7781,
  "Ġella": 7782,
  "Ġhapp": 7783,
  "ousse": 7784,
  "Ġdart": 7785,
  "gne": 7786,
  "enna": 7787,
  "onica": 7788,
  "Ġsao": 7789,
  "ember": 7790,
  "acket": 7791,
  "ovan": 7792,
  "Ġneed": 7793,
  "shall": 7794,
  "Ġfriends": 7795,
  "mur": 7796,
  "Ġexist": 7797,
  "Ġshowroom": 7798,
  "Ġori": 7799,
  "Ġjug": 7800,
  "Ġmm": 7801,
  "Ġcollage": 7802,
  "Ġcentrif": 7803,
  "comput": 7804,
  "Ġmodem": 7805,
  "Ġale": 7806,
  "Ġrain": 7807,
  "Ġluz": 7808,
  "Ġtickets": 7809,
  "Ġtrainers": 7810,
  "enor": 7811,
  "cene": 7812,
  "ye": 7813,
  "Ġnp": 7814,
  "utor": 7815,
  "ague": 7816,
  "Ġpress": 7817,
  "ivas": 7818,
  "usi": 7819,
  "amba": 7820,
  "Ġgb": 7821,
  "ucci": 7822,
  "Ġfiction": 7823,
  "Ġmell": 7824,
  "Ġcuk": 7825,
  "love": 7826,
  "cript": 7827,
  "avig": 7828,
  "Ġspou": 7829,
  "terminal": 7830,
  "bindings": 7831,
  "she": 7832,
  "xa": 7833,
  "Ġanticip": 7834,
  "weed": 7835,
  "sec": 7836,
  "Ġhave": 7837,
  "unction": 7838,
  "effect": 7839,
  "Ġprofessional": 7840,
  "Ġcum": 7841,
  "vs": 7842,
  "15": 7843,
  "Ġformer": 7844,
  "hee": 7845,
  "Ġnons": 7846,
  "aber": 7847,
  "quist": 7848,
  "Ġgymn": 7849,
  "Ġbrainstorm": 7850,
  "ija": 7851,
  "Ġomas": 7852,
  "Ġdich": 7853,
  "Ġstickers": 7854,
  "gle": 7855,
  "acks": 7856,
  "Ġfix": 7857,
  "Ġzen": 7858,
  "osis": 7859,
  "rozen": 7860,
  "Ġbeef": 7861,
  "Ġflaming": 7862,
  "Ġcake": 7863,
  "Ġrig": 7864,
  "Ġhero": 7865,
  "verige": 7866,
  "Ġpueblo": 7867,
  "Ġvas": 7868,
  "quez": 7869,
  "Ġnev": 7870,
  "Ġexped": 7871,
  "Ġcanon": 7872,
  "Ġrapp": 7873,
  "Ġgrotes": 7874,
  "ampp": 7875,
  "opher": 7876,
  "Ġsort": 7877,
  "Ġattrib": 7878,
  "Ġisland": 7879,
  "Ġexcellent": 7880,
  "rab": 7881,
  "Ġgeomet": 7882,
  "asin": 7883,
  "Ġgilt": 7884,
  "Ġblinded": 7885,
  "igne": 7886,
  "engl": 7887,
  "Ġnord": 7888,
  "ilet": 7889,
  "pid": 7890,
  "Ġwhite": 7891,
  "Ġlion": 7892,
  "osi": 7893,
  "Ġspor": 7894,
  "Ġcivil": 7895,
  "Ġcheque": 7896,
  "Ġcob": 7897,
  "Ġviolet": 7898,
  "imers": 7899,
  "Ġwow": 7900,
  "rons": 7901,
  "Ġpane": 7902,
  "extra": 7903,
  "monds": 7904,
  "oir": 7905,
  "Ġcui": 7906,
  "Ġort": 7907,
  "Ġarc": 7908,
  "Ġbow": 7909,
  "Ġtwin": 7910,
  "Ġrud": 7911,
  "Ġww": 7912,
  "Ġpostcode": 7913,
  "Ġdau": 7914,
  "irma": 7915,
  "zik": 7916,
  "Ġsmaller": 7917,
  "Ġbikini": 7918,
  "still": 7919,
  "Ġveteran": 7920,
  "Ġkp": 7921,
  "Ġboy": 7922,
  "chos": 7923,
  "Ġpicture": 7924,
  "Ġmt": 7925,
  "Ġpearl": 7926,
  "iane": 7927,
  "Ġchristian": 7928,
  "Ġlegion": 7929,
  "amon": 7930,
  "Ġvisa": 7931,
  "send": 7932,
  "Ġpride": 7933,
  "Ġembryos": 7934,
  "step": 7935,
  "ulance": 7936,
  "Ġworkshops": 7937,
  "Ġentertainment": 7938,
  "gow": 7939,
  "Ġservic": 7940,
  "itic": 7941,
  "Ġseri": 7942,
  "Ġmasters": 7943,
  "Ġyoung": 7944,
  "olds": 7945,
  "Ġpromin": 7946,
  "aves": 7947,
  "Ġepid": 7948,
  "ablo": 7949,
  "ajes": 7950,
  "produ": 7951,
  "assist": 7952,
  "coni": 7953,
  "ugging": 7954,
  "Ġalph": 7955,
  "Ġvain": 7956,
  "mix": 7957,
  "endum": 7958,
  "Ġrip": 7959,
  "Ġrecher": 7960,
  "Ġsponsors": 7961,
  "spec": 7962,
  "feit": 7963,
  "Ġkann": 7964,
  "Ġuv": 7965,
  "tan": 7966,
  "atherine": 7967,
  "Ġraces": 7968,
  "Ġcnn": 7969,
  "Ġinfiltr": 7970,
  "Ġnost": 7971,
  "Ġiris": 7972,
  "antro": 7973,
  "Ġbreak": 7974,
  "Ġbulld": 7975,
  "erton": 7976,
  "awai": 7977,
  "uzzi": 7978,
  "ashi": 7979,
  "andon": 7980,
  "Ġcors": 7981,
  "Ġesc": 7982,
  "Ġrenov": 7983,
  "Ġdetermine": 7984,
  "aram": 7985,
  "Ġpick": 7986,
  "Ġsaw": 7987,
  "Ġshows": 7988,
  "Ġmp": 7989,
  "Ġafter": 7990,
  "Ġdess": 7991,
  "elon": 7992,
  "Ġich": 7993,
  "oco": 7994,
  "percentage": 7995,
  "Ġfeedback": 7996,
  "igram": 7997,
  "zy": 7998,
  "Ġdall": 7999,
  "Ġhumane": 8000,
  "emachine": 8001,
  "Ġadolescent": 8002,
  "Ġtiny": 8003,
  "ipa": 8004,
  "ounc": 8005,
  "fone": 8006,
  "apest": 8007,
  "Ġrefere": 8008,
  "dice": 8009,
  "Ġsecular": 8010,
  "Ġcodes": 8011,
  "Ġfilmmakers": 8012,
  "ordinator": 8013,
  "abd": 8014,
  "sed": 8015,
  "Ġrugby": 8016,
  "Ġlire": 8017,
  "writer": 8018,
  "oment": 8019,
  "Ġvoice": 8020,
  "baz": 8021,
  "Ġss": 8022,
  "Ġinterpre": 8023,
  "Ġaccess": 8024,
  "manifest": 8025,
  "til": 8026,
  "Ġpob": 8027,
  "izi": 8028,
  "tar": 8029,
  "Ġbella": 8030,
  "favor": 8031,
  "Ġsad": 8032,
  "iani": 8033,
  "Ġholder": 8034,
  "Ġsquare": 8035,
  "enth": 8036,
  "ialis": 8037,
  "Ġhardware": 8038,
  "Ġinstitution": 8039,
  "Ġcompos": 8040,
  "Ġperc": 8041,
  "educ": 8042,
  "vez": 8043,
  "Ġleve": 8044,
  "Ġbald": 8045,
  "Ġkaf": 8046,
  "inski": 8047,
  "Ġstandard": 8048,
  "Ġfruits": 8049,
  "main": 8050,
  "Ġdy": 8051,
  "nn": 8052,
  "Ġrevis": 8053,
  "noch": 8054,
  "bose": 8055,
  "ernen": 8056,
  "Ġalleg": 8057,
  "Ġstol": 8058,
  "ody": 8059,
  "aki": 8060,
  "Ġvez": 8061,
  "Ġcerc": 8062,
  "execute": 8063,
  "Ġdong": 8064,
  "Ġdari": 8065,
  "ilot": 8066,
  "ubber": 8067,
  "iec": 8068,
  "Ġfifty": 8069,
  "Ġuf": 8070,
  "ingo": 8071,
  "Ġling": 8072,
  "Ġunit": 8073,
  "fib": 8074,
  "vc": 8075,
  "motor": 8076,
  "Ġpf": 8077,
  "avan": 8078,
  "namese": 8079,
  "unma": 8080,
  "akening": 8081,
  "Ġdefense": 8082,
  "Ġconsul": 8083,
  "Ġkinds": 8084,
  "them": 8085,
  "yun": 8086,
  "ermal": 8087,
  "Ġprominent": 8088,
  "Ġkings": 8089,
  "Ġgrass": 8090,
  "Ġwood": 8091,
  "Ġcatast": 8092,
  "tons": 8093,
  "mk": 8094,
  "yar": 8095,
  "Ġtornado": 8096,
  "ox": 8097,
  "Ġdrib": 8098,
  "otty": 8099,
  "Ġbride": 8100,
  "pekt": 8101,
  "obus": 8102,
  "Ġtanker": 8103,
  "Ġpour": 8104,
  "ekl": 8105,
  "wyn": 8106,
  "Ġomn": 8107,
  "Ġrelie": 8108,
  "court": 8109,
  "Ġbols": 8110,
  "Ġclich": 8111,
  "agents": 8112,
  "Ġchemical": 8113,
  "eko": 8114,
  "overn": 8115,
  "rails": 8116,
  "icon": 8117,
  "Ġcamps": 8118,
  "home": 8119,
  "Ġcm": 8120,
  "ndon": 8121,
  "Ġgoof": 8122,
  "Ġloyal": 8123,
  "Ġfranchise": 8124,
  "Ġgemacht": 8125,
  "etin": 8126,
  "cao": 8127,
  "emit": 8128,
  "Ġclap": 8129,
  "lict": 8130,
  "hall": 8131,
  "resden": 8132,
  "atti": 8133,
  "Ġtackle": 8134,
  "ubishi": 8135,
  "Ġmineral": 8136,
  "Ġnomin": 8137,
  "aku": 8138,
  "Ġmour": 8139,
  "Ġtant": 8140,
  "tec": 8141,
  "ular": 8142,
  "Ġsqu": 8143,
  "cing": 8144,
  "jal": 8145,
  "Ġmj": 8146,
  "Ġbamb": 8147,
  "fur": 8148,
  "ollect": 8149,
  "pc": 8150,
  "system": 8151,
  "ervice": 8152,
  "Ġmodal": 8153,
  "Ġif": 8154,
  "criminal": 8155,
  "proc": 8156,
  "Ġscenarios": 8157,
  "antic": 8158,
  "Ġexit": 8159,
  "agger": 8160,
  "Ġaug": 8161,
  "Ġarb": 8162,
  "Ġud": 8163,
  "aje": 8164,
  "soc": 8165,
  "attle": 8166,
  "Ġward": 8167,
  "Ġplateau": 8168,
  "Ġdrive": 8169,
  "Ġrestrict": 8170,
  "Ġmain": 8171,
  "bis": 8172,
  "Ġreserves": 8173,
  "Ġmultiple": 8174,
  "registr": 8175,
  "assoc": 8176,
  "ilk": 8177,
  "Ġtoast": 8178,
  "Ġsticker": 8179,
  "oufl": 8180,
  "utom": 8181,
  "19": 8182,
  "rant": 8183,
  "kit": 8184,
  "atel": 8185,
  "iens": 8186,
  "kart": 8187,
  "ined": 8188,
  "Ġtier": 8189,
  "dde": 8190,
  "Ġherr": 8191,
  "Ġessays": 8192,
  "unker": 8193,
  "Ġrake": 8194,
  "ikh": 8195,
  "oulouse": 8196,
  "Ġpied": 8197,
  "riers": 8198,
  "Ġhym": 8199,
  "Ġstron": 8200,
  "iscrim": 8201,
  "bras": 8202,
  "lor": 8203,
  "prime": 8204,
  "Ġerw": 8205,
  "Ġdof": 8206,
  "mor": 8207,
  "haft": 8208,
  "yer": 8209,
  "bies": 8210,
  "Ġhope": 8211,
  "bruar": 8212,
  "Ġimper": 8213,
  "Ġjersey": 8214,
  "arget": 8215,
  "Ġott": 8216,
  "Ġses": 8217,
  "andas": 8218,
  "vey": 8219,
  "Ġves": 8220,
  "crit": 8221,
  "Ġvale": 8222,
  "Ġrant": 8223,
  "stav": 8224,
  "cond": 8225,
  "cu": 8226,
  "urm": 8227,
  "isan": 8228,
  "Ġtoll": 8229,
  "Ġgon": 8230,
  "arga": 8231,
  "Ġsacram": 8232,
  "Ġtout": 8233,
  "ardon": 8234,
  "oine": 8235,
  "Ġgn": 8236,
  "weit": 8237,
  "Ġlem": 8238,
  "Ġcarp": 8239,
  "Ġprinter": 8240,
  "Ġhull": 8241,
  "Ġdiv": 8242,
  "Ġjapon": 8243,
  "iej": 8244,
  "apon": 8245,
  "dance": 8246,
  "Ġelectric": 8247,
  "fruit": 8248,
  "mental": 8249,
  "Ġgad": 8250,
  "Ġtalk": 8251,
  "ropp": 8252,
  "atty": 8253,
  "Ġlia": 8254,
  "business": 8255,
  "Ġmotors": 8256,
  "Ġfram": 8257,
  "orange": 8258,
  "respond": 8259,
  "Ġroots": 8260,
  "lasting": 8261,
  "Ġyoga": 8262,
  "Ġdvd": 8263,
  "Ġcs": 8264,
  "olini": 8265,
  "Ġmiser": 8266,
  "amps": 8267,
  "Ġviv": 8268,
  "egl": 8269,
  "Ġcountry": 8270,
  "Ġguit": 8271,
  "variant": 8272,
  "ashington": 8273,
  "Ġxt": 8274,
  "icrosoft": 8275,
  "Ġintimid": 8276,
  "Ġlabel": 8277,
  "Ġtown": 8278,
  "antis": 8279,
  "cy": 8280,
  "deal": 8281,
  "Ġdinosaur": 8282,
  "67": 8283,
  "Ġstockholm": 8284,
  "cede": 8285,
  "Ġboots": 8286,
  "Ġuranium": 8287,
  "iko": 8288,
  "cord": 8289,
  "rd": 8290,
  "Ġvolum": 8291,
  "account": 8292,
  "Ġexplode": 8293,
  "pink": 8294,
  "Ġantibiotic": 8295,
  "inth": 8296,
  "Ġdestruct": 8297,
  "ilio": 8298,
  "pray": 8299,
  "27": 8300,
  "7": 8301,
  "rooms": 8302,
  "Ġful": 8303,
  "Ġamnesty": 8304,
  "Ġgallery": 8305,
  "Ġnormal": 8306,
  "abal": 8307,
  "bao": 8308,
  "oles": 8309,
  "ness": 8310,
  "Ġflap": 8311,
  "dict": 8312,
  "Ġnuances": 8313,
  "ical": 8314,
  "profession": 8315,
  "Ġwork": 8316,
  "Ġtry": 8317,
  "Ġhamburger": 8318,
  "zt": 8319,
  "Ġorganism": 8320,
  "Ġconstr": 8321,
  "genden": 8322,
  "Ġflip": 8323,
  "Ġdc": 8324,
  "Ġboys": 8325,
  "Ġneon": 8326,
  "igma": 8327,
  "coal": 8328,
  "ilers": 8329,
  "international": 8330,
  "Ġinteger": 8331,
  "Ġgin": 8332,
  "alus": 8333,
  "Ġseine": 8334,
  "Ġofficial": 8335,
  "castle": 8336,
  "ason": 8337,
  "andez": 8338,
  "Ġlob": 8339,
  "Ġski": 8340,
  "Ġanc": 8341,
  "Ġfauna": 8342,
  "Ġblanc": 8343,
  "Ġclean": 8344,
  "Ġecosystem": 8345,
  "ordin": 8346,
  "Ġthink": 8347,
  "enie": 8348,
  "any": 8349,
  "Ġdouble": 8350,
  "Ġlucky": 8351,
  "Ġfeeling": 8352,
  "Ġgam": 8353,
  "factor": 8354,
  "Ġkb": 8355,
  "Ġbog": 8356,
  "grim": 8357,
  "ingu": 8358,
  "human": 8359,
  "uman": 8360,
  "intr": 8361,
  "Ġfrag": 8362,
  "Ġdramas": 8363,
  "ysi": 8364,
  "Ġpriorit": 8365,
  "Ġdonna": 8366,
  "Ġvulgar": 8367,
  "ebe": 8368,
  "series": 8369,
  "ucas": 8370,
  "Ġbesten": 8371,
  "plat": 8372,
  "rimon": 8373,
  "ofilm": 8374,
  "Ġcarrier": 8375,
  "Ġfrom": 8376,
  "Ġapplaud": 8377,
  "opies": 8378,
  "Ġseh": 8379,
  "Ġclick": 8380,
  "bern": 8381,
  "edar": 8382,
  "Ġmoto": 8383,
  "hind": 8384,
  "Ġdum": 8385,
  "Ġwording": 8386,
  "Ġsue": 8387,
  "venge": 8388,
  "isers": 8389,
  "essel": 8390,
  "exc": 8391,
  "Ġfeu": 8392,
  "Ġfacto": 8393,
  "priv": 8394,
  "Ġsimpl": 8395,
  "Ġspectrum": 8396,
  "ifest": 8397,
  "40": 8398,
  "Ġcof": 8399,
  "ondo": 8400,
  "Ġjobs": 8401,
  "Ġmake": 8402,
  "Ġerr": 8403,
  "Ġdass": 8404,
  "Ġoffers": 8405,
  "enler": 8406,
  "affer": 8407,
  "Ġpense": 8408,
  "Ġjov": 8409,
  "Ġkul": 8410,
  "nost": 8411,
  "ollo": 8412,
  "lama": 8413,
  "artz": 8414,
  "Ġore": 8415,
  "Ġurban": 8416,
  "iture": 8417,
  "Ġhypotheses": 8418,
  "iod": 8419,
  "imo": 8420,
  "Ġcanyon": 8421,
  "avings": 8422,
  "Ġsneak": 8423,
  "Ġcin": 8424,
  "Ġgoes": 8425,
  "Ġinfrastructure": 8426,
  "ulet": 8427,
  "Ġintroduce": 8428,
  "Ġgs": 8429,
  "Ġenclave": 8430,
  "Ġimage": 8431,
  "zed": 8432,
  "Ġinse": 8433,
  "Ġautobi": 8434,
  "Ġmargin": 8435,
  "Ġorigin": 8436,
  "riminal": 8437,
  "font": 8438,
  "ship": 8439,
  "Ġsperma": 8440,
  "Ġsame": 8441,
  "opening": 8442,
  "Ġsubt": 8443,
  "Ġpep": 8444,
  "slot": 8445,
  "sign": 8446,
  "usc": 8447,
  "yas": 8448,
  "inez": 8449,
  "Ġarrog": 8450,
  "atro": 8451,
  "Ġmamm": 8452,
  "Ġspender": 8453,
  "Ġbrutal": 8454,
  "Ġadvent": 8455,
  "egal": 8456,
  "Ġinvalid": 8457,
  "Ġrut": 8458,
  "reen": 8459,
  "Ġfootball": 8460,
  "cos": 8461,
  "Ġcic": 8462,
  "angelo": 8463,
  "ssp": 8464,
  "Ġref": 8465,
  "egan": 8466,
  "elles": 8467,
  "Ġlifestyle": 8468,
  "iang": 8469,
  "allo": 8470,
  "Ġneu": 8471,
  "atern": 8472,
  "fit": 8473,
  "Ġvoices": 8474,
  "ether": 8475,
  "onso": 8476,
  "Ġfloor": 8477,
  "urr": 8478,
  "agem": 8479,
  "uber": 8480,
  "Ġnull": 8481,
  "element": 8482,
  "mail": 8483,
  "Ġcombine": 8484,
  "fat": 8485,
  "Ġinherent": 8486,
  "computer": 8487,
  "Ġeag": 8488,
  "Ġapartheid": 8489,
  "rne": 8490,
  "cw": 8491,
  "soap": 8492,
  "Ġmonet": 8493,
  "Ġcu": 8494,
  "orno": 8495,
  "Ġhari": 8496,
  "Ġcir": 8497,
  "Ġdropping": 8498,
  "Ġpestic": 8499,
  "Ġzap": 8500,
  "Ġkv": 8501,
  "Ġyan": 8502,
  "ippo": 8503,
  "17": 8504,
  "Ġsurve": 8505,
  "Ġmotel": 8506,
  "Ġtrace": 8507,
  "brew": 8508,
  "ilater": 8509,
  "ecast": 8510,
  "odia": 8511,
  "orton": 8512,
  "lac": 8513,
  "Ġnk": 8514,
  "oric": 8515,
  "Ġeclips": 8516,
  "nah": 8517,
  "Ġrespons": 8518,
  "Ġvw": 8519,
  "ourage": 8520,
  "utos": 8521,
  "trail": 8522,
  "Ġoptimal": 8523,
  "oda": 8524,
  "Ġcp": 8525,
  "indic": 8526,
  "Ġtento": 8527,
  "Ġnd": 8528,
  "Ġsr": 8529,
  "Ġfiscal": 8530,
  "Ġadviser": 8531,
  "lech": 8532,
  "Ġsuis": 8533,
  "Ġgegen": 8534,
  "Ġew": 8535,
  "ised": 8536,
  "grep": 8537,
  "prom": 8538,
  "quare": 8539,
  "Ġsna": 8540,
  "Ġnaw": 8541,
  "Ġnim": 8542,
  "mac": 8543,
  "obi": 8544,
  "Ġpasser": 8545,
  "Ġanon": 8546,
  "bout": 8547,
  "Ġliv": 8548,
  "Ġrelative": 8549,
  "upper": 8550,
  "Ġaer": 8551,
  "wj": 8552,
  "acie": 8553,
  "Ġeros": 8554,
  "rig": 8555,
  "Ġcurriculum": 8556,
  "did": 8557,
  "alement": 8558,
  "nement": 8559,
  "error": 8560,
  "Ġstagn": 8561,
  "bang": 8562,
  "aylor": 8563,
  "symbol": 8564,
  "oger": 8565,
  "aho": 8566,
  "Ġgreat": 8567,
  "ansas": 8568,
  "izon": 8569,
  "fp": 8570,
  "Ġtragedies": 8571,
  "Ġlegitim": 8572,
  "Ġmats": 8573,
  "peg": 8574,
  "Ġlocom": 8575,
  "ildo": 8576,
  "istol": 8577,
  "Ġtrem": 8578,
  "Ġkitty": 8579,
  "rador": 8580,
  "Ġbloc": 8581,
  "note": 8582,
  "ieres": 8583,
  "dens": 8584,
  "mus": 8585,
  "ackbar": 8586,
  "Ġcowboy": 8587,
  "Ġcottage": 8588,
  "Ġsuff": 8589,
  "nock": 8590,
  "ogl": 8591,
  "ady": 8592,
  "pto": 8593,
  "Ġbrands": 8594,
  "comp": 8595,
  "roller": 8596,
  "iolet": 8597,
  "Ġcalcium": 8598,
  "Ġcourt": 8599,
  "shire": 8600,
  "itsu": 8601,
  "period": 8602,
  "iple": 8603,
  "onia": 8604,
  "Ġreporter": 8605,
  "Ġarrangement": 8606,
  "Ġaward": 8607,
  "Ġbun": 8608,
  "Ġindo": 8609,
  "Ġslash": 8610,
  "uj": 8611,
  "Ġleur": 8612,
  "ikes": 8613,
  "rose": 8614,
  "uru": 8615,
  "adress": 8616,
  "Ġknockout": 8617,
  "bine": 8618,
  "Ġharm": 8619,
  "hot": 8620,
  "Ġeight": 8621,
  "Ġcrist": 8622,
  "lg": 8623,
  "Ġamber": 8624,
  "Ġters": 8625,
  "conomy": 8626,
  "hill": 8627,
  "islav": 8628,
  "sur": 8629,
  "20": 8630,
  "oxide": 8631,
  "Ġmega": 8632,
  "Ġtouring": 8633,
  "isin": 8634,
  "inos": 8635,
  "expert": 8636,
  "Ġautof": 8637,
  "opo": 8638,
  "Ġastronaut": 8639,
  "cab": 8640,
  "10": 8641,
  "free": 8642,
  "anya": 8643,
  "villa": 8644,
  "Ġlesbi": 8645,
  "aji": 8646,
  "aru": 8647,
  "Ġgolden": 8648,
  "Ġfro": 8649,
  "inis": 8650,
  "lems": 8651,
  "producer": 8652,
  "bike": 8653,
  "Ġiso": 8654,
  "Ġwarming": 8655,
  "tract": 8656,
  "Ġsunday": 8657,
  "Ġborn": 8658,
  "arence": 8659,
  "Ġtego": 8660,
  "ination": 8661,
  "otion": 8662,
  "Ġlp": 8663,
  "Ġmobile": 8664,
  "Ġboo": 8665,
  "Ġevolution": 8666,
  "oire": 8667,
  "umas": 8668,
  "provider": 8669,
  "Ġvision": 8670,
  "sey": 8671,
  "alia": 8672,
  "Ġwhatever": 8673,
  "inct": 8674,
  "Ġfake": 8675,
  "ll": 8676,
  "Ġporno": 8677,
  "Ġliegt": 8678,
  "Ġmeine": 8679,
  "Ġabc": 8680,
  "Ġnao": 8681,
  "winner": 8682,
  "Ġbeginners": 8683,
  "Ġdelicate": 8684,
  "Ġrow": 8685,
  "inus": 8686,
  "Ġstarter": 8687,
  "Ġcest": 8688,
  "Ġgame": 8689,
  "Ġsalt": 8690,
  "Ġtall": 8691,
  "Ġinde": 8692,
  "adier": 8693,
  "train": 8694,
  "ukan": 8695,
  "opoulos": 8696,
  "alar": 8697,
  "Ġfrench": 8698,
  "Ġparts": 8699,
  "Ġdesert": 8700,
  "Ġjes": 8701,
  "Ġtea": 8702,
  "Ġbir": 8703,
  "actor": 8704,
  "snap": 8705,
  "Ġcoaching": 8706,
  "otype": 8707,
  "ii": 8708,
  "Ġsignificant": 8709,
  "criteria": 8710,
  "aldo": 8711,
  "bidden": 8712,
  "Ġcata": 8713,
  "rous": 8714,
  "ables": 8715,
  "atha": 8716,
  "iesen": 8717,
  "Ġmonot": 8718,
  "alist": 8719,
  "Ġblanco": 8720,
  "Ġchance": 8721,
  "Ġuniversal": 8722,
  "national": 8723,
  "Ġtunes": 8724,
  "Ġtum": 8725,
  "Ġmerg": 8726,
  "ches": 8727,
  "icho": 8728,
  "pton": 8729,
  "Ġschw": 8730,
  "xf": 8731,
  "Ġpapers": 8732,
  "Ġpract": 8733,
  "integr": 8734,
  "ln": 8735,
  "inburgh": 8736,
  "fore": 8737,
  "Ġcov": 8738,
  "Ġamp": 8739,
  "ateg": 8740,
  "filters": 8741,
  "your": 8742,
  "thy": 8743,
  "Ġsupplement": 8744,
  "Ġtitular": 8745,
  "Ġpalace": 8746,
  "upo": 8747,
  "egers": 8748,
  "ition": 8749,
  "isting": 8750,
  "utch": 8751,
  "hma": 8752,
  "ity": 8753,
  "orent": 8754,
  "adj": 8755,
  "Ġcolumnist": 8756,
  "Ġcorrection": 8757,
  "Ġstock": 8758,
  "zip": 8759,
  "Ġnever": 8760,
  "atos": 8761,
  "Ġnylon": 8762,
  "ois": 8763,
  "strip": 8764,
  "gan": 8765,
  "ddie": 8766,
  "brick": 8767,
  "Ġgum": 8768,
  "Ġkarma": 8769,
  "Ġteng": 8770,
  "Ġgrin": 8771,
  "Ġkazan": 8772,
  "fragment": 8773,
  "flo": 8774,
  "illis": 8775,
  "Ġfak": 8776,
  "otto": 8777,
  "iov": 8778,
  "far": 8779,
  "iran": 8780,
  "Ġoutfit": 8781,
  "Ġsheriff": 8782,
  "meg": 8783,
  "vinc": 8784,
  "ryan": 8785,
  "Ġside": 8786,
  "Ġcommercials": 8787,
  "Ġrebel": 8788,
  "Ġreview": 8789,
  "Ġpersonal": 8790,
  "Ġprofile": 8791,
  "Ġcompet": 8792,
  "Ġconsortium": 8793,
  "Ġsheets": 8794,
  "Ġtechnologies": 8795,
  "hip": 8796,
  "incip": 8797,
  "Ġfamilia": 8798,
  "Ġcongress": 8799,
  "Ġhaut": 8800,
  "Ġedi": 8801,
  "Ġactu": 8802,
  "oup": 8803,
  "nga": 8804,
  "cou": 8805,
  "ctr": 8806,
  "pace": 8807,
  "inging": 8808,
  "ifty": 8809,
  "Ġmai": 8810,
  "Ġmacro": 8811,
  "Ġconsumer": 8812,
  "Ġvalide": 8813,
  "aran": 8814,
  "ogn": 8815,
  "unny": 8816,
  "Ġbeni": 8817,
  "Ġrif": 8818,
  "Ġchang": 8819,
  "wich": 8820,
  "Ġmouse": 8821,
  "Ġdual": 8822,
  "rr": 8823,
  "Ġsah": 8824,
  "gli": 8825,
  "adders": 8826,
  "Ġjungle": 8827,
  "Ġaura": 8828,
  "Ġadjud": 8829,
  "Ġsagen": 8830,
  "Ġrouge": 8831,
  "spell": 8832,
  "Ġradical": 8833,
  "airobi": 8834,
  "oble": 8835,
  "osen": 8836,
  "san": 8837,
  "wood": 8838,
  "kem": 8839,
  "apo": 8840,
  "emat": 8841,
  "Ġfren": 8842,
  "jde": 8843,
  "Ġjel": 8844,
  "Ġpee": 8845,
  "Ġaudi": 8846,
  "bull": 8847,
  "bay": 8848,
  "Ġprob": 8849,
  "acon": 8850,
  "agnar": 8851,
  "Ġmajor": 8852,
  "emaker": 8853,
  "Ġhypert": 8854,
  "Ġstatement": 8855,
  "Ġpict": 8856,
  "Ġcricket": 8857,
  "Ġpudd": 8858,
  "Ġdg": 8859,
  "ockey": 8860,
  "Ġpip": 8861,
  "mic": 8862,
  "Ġupt": 8863,
  "Ġonly": 8864,
  "Ġscouting": 8865,
  "Ġpolicy": 8866,
  "Ġdriver": 8867,
  "Ġseinen": 8868,
  "ostel": 8869,
  "rix": 8870,
  "Ġreducer": 8871,
  "Ġchor": 8872,
  "current": 8873,
  "Ġlh": 8874,
  "Ġflags": 8875,
  "Ġexplorer": 8876,
  "openhagen": 8877,
  "Ġtrophy": 8878,
  "ypes": 8879,
  "Ġmystery": 8880,
  "Ġgames": 8881,
  "Ġtt": 8882,
  "Ġantim": 8883,
  "odings": 8884,
  "second": 8885,
  "Ġchim": 8886,
  "iode": 8887,
  "Ġsoy": 8888,
  "sort": 8889,
  "pires": 8890,
  "Ġcach": 8891,
  "imension": 8892,
  "binding": 8893,
  "Ġfraud": 8894,
  "report": 8895,
  "Ġdesktop": 8896,
  "Ġslides": 8897,
  "Ġstory": 8898,
  "Ġjin": 8899,
  "Ġbunk": 8900,
  "Ġdif": 8901,
  "Ġsink": 8902,
  "Ġbland": 8903,
  "Ġmemorandum": 8904,
  "314": 8905,
  "ixon": 8906,
  "ulf": 8907,
  "hay": 8908,
  "uncan": 8909,
  "smith": 8910,
  "Ġaure": 8911,
  "lius": 8912,
  "avian": 8913,
  "ettings": 8914,
  "Ġsond": 8915,
  "Ġconsort": 8916,
  "Ġbei": 8917,
  "Ġbranches": 8918,
  "tin": 8919,
  "accent": 8920,
  "Ġwinning": 8921,
  "tap": 8922,
  "uhn": 8923,
  "Ġurgent": 8924,
  "quote": 8925,
  "istic": 8926,
  "Ġaccommod": 8927,
  "Ġbrain": 8928,
  "infra": 8929,
  "ports": 8930,
  "clude": 8931,
  "Ġcore": 8932,
  "Ġzero": 8933,
  "Ġcharge": 8934,
  "angles": 8935,
  "Ġthrill": 8936,
  "asts": 8937,
  "Ġsetting": 8938,
  "Ġoverhead": 8939,
  "Ġtask": 8940,
  "pig": 8941,
  "Ġtroll": 8942,
  "nz": 8943,
  "Ġbuzz": 8944,
  "utters": 8945,
  "hur": 8946,
  "spot": 8947,
  "Ġfac": 8948,
  "chron": 8949,
  "agnost": 8950,
  "story": 8951,
  "serve": 8952,
  "Ġserene": 8953,
  "Ġdesc": 8954,
  "esper": 8955,
  "gm": 8956,
  "Ġtaille": 8957,
  "imes": 8958,
  "acs": 8959,
  "oler": 8960,
  "elho": 8961,
  "law": 8962,
  "pes": 8963,
  "Ġequ": 8964,
  "doch": 8965,
  "sie": 8966,
  "plate": 8967,
  "Ġjag": 8968,
  "Ġrocky": 8969,
  "atholic": 8970,
  "airie": 8971,
  "Ġage": 8972,
  "dc": 8973,
  "Ġerect": 8974,
  "uar": 8975,
  "Ġcamouflage": 8976,
  "gy": 8977,
  "orget": 8978,
  "monster": 8979,
  "alue": 8980,
  "Ġpuff": 8981,
  "epend": 8982,
  "Ġplaza": 8983,
  "Ġqueens": 8984,
  "claims": 8985,
  "Ġbridge": 8986,
  "ahn": 8987,
  "ercul": 8988,
  "Ġcorres": 8989,
  "adoo": 8990,
  "coh": 8991,
  "Ġverifier": 8992,
  "Ġcoinc": 8993,
  "ych": 8994,
  "Ġgraft": 8995,
  "Ġvital": 8996,
  "Ġlane": 8997,
  "uzz": 8998,
  "nov": 8999,
  "lobber": 9000,
  "Ġbend": 9001,
  "Ġvad": 9002,
  "pull": 9003,
  "04": 9004,
  "ouri": 9005,
  "Ġtag": 9006,
  "appa": 9007,
  "Ġnovice": 9008,
  "icia": 9009,
  "Ġtours": 9010,
  "Ġlibert": 9011,
  "games": 9012,
  "Ġtelegram": 9013,
  "Ġglamour": 9014,
  "Ġcalcul": 9015,
  "Ġstaff": 9016,
  "Ġds": 9017,
  "100": 9018,
  "Ġtech": 9019,
  "Ġmies": 9020,
  "su": 9021,
  "play": 9022,
  "Ġboh": 9023,
  "actus": 9024,
  "Ġcandy": 9025,
  "Ġdio": 9026,
  "Ġtests": 9027,
  "Ġaccountant": 9028,
  "Ġonc": 9029,
  "Ġpush": 9030,
  "Ġconstitution": 9031,
  "Ġhint": 9032,
  "imi": 9033,
  "Ġrings": 9034,
  "ambique": 9035,
  "Ġdrummer": 9036,
  "qa": 9037,
  "Ġpiercing": 9038,
  "ordes": 9039,
  "Ġfields": 9040,
  "head": 9041,
  "Ġflash": 9042,
  "Ġyer": 9043,
  "Ġflying": 9044,
  "clave": 9045,
  "Ġscen": 9046,
  "omon": 9047,
  "files": 9048,
  "Ġrecords": 9049,
  "kick": 9050,
  "Ġanal": 9051,
  "prints": 9052,
  "register": 9053,
  "Ġfilmpjes": 9054,
  "abela": 9055,
  "enting": 9056,
  "Ġoslo": 9057,
  "Ġtraffic": 9058,
  "quot": 9059,
  "Ġquot": 9060,
  "ioxide": 9061,
  "img": 9062,
  "Ġbidding": 9063,
  "Ġpulp": 9064,
  "Ġny": 9065,
  "enheim": 9066,
  "lug": 9067,
  "Ġcanal": 9068,
  "loy": 9069,
  "Ġdownload": 9070,
  "software": 9071,
  "vn": 9072,
  "Ġtrains": 9073,
  "vio": 9074,
  "nv": 9075,
  "enzie": 9076,
  "Ġpolo": 9077,
  "owed": 9078,
  "Ġcook": 9079,
  "ourt": 9080,
  "igi": 9081,
  "50": 9082,
  "Ġnb": 9083,
  "food": 9084,
  "apol": 9085,
  "dere": 9086,
  "Ġnostalg": 9087,
  "Ġdjango": 9088,
  "urse": 9089,
  "atest": 9090,
  "Ġhoy": 9091,
  "Ġsafe": 9092,
  "Ġcoaches": 9093,
  "Ġtape": 9094,
  "Ġtranscript": 9095,
  "fern": 9096,
  "ramer": 9097,
  "Ġimpres": 9098,
  "Ġfatal": 9099,
  "studio": 9100,
  "eries": 9101,
  "ments": 9102,
  "Ġbullshit": 9103,
  "truck": 9104,
  "Ġautomat": 9105,
  "uve": 9106,
  "Ġridic": 9107,
  "yle": 9108,
  "american": 9109,
  "Ġimpeachment": 9110,
  "ewart": 9111,
  "Ġgentleman": 9112,
  "Ġtort": 9113,
  "andro": 9114,
  "leta": 9115,
  "Ġace": 9116,
  "Ġnarr": 9117,
  "ufen": 9118,
  "Ġthats": 9119,
  "Ġdelt": 9120,
  "server": 9121,
  "Ġbrig": 9122,
  "ertas": 9123,
  "ansk": 9124,
  "acey": 9125,
  "Ġbiod": 9126,
  "Ġfood": 9127,
  "service": 9128,
  "Ġthis": 9129,
  "fine": 9130,
  "Ġsoundtrack": 9131,
  "Ġsouth": 9132,
  "Ġcork": 9133,
  "party": 9134,
  "bian": 9135,
  "Ġparan": 9136,
  "Ġfic": 9137,
  "indsay": 9138,
  "itm": 9139,
  "Ġmentors": 9140,
  "Ġteaching": 9141,
  "Ġtoler": 9142,
  "ozy": 9143,
  "Ġstencil": 9144,
  "Ġreactor": 9145,
  "Ġoblig": 9146,
  "Ġaccol": 9147,
  "able": 9148,
  "Ġfreelance": 9149,
  "eya": 9150,
  "nal": 9151,
  "agma": 9152,
  "Ġbelie": 9153,
  "Ġexcess": 9154,
  "explo": 9155,
  "Ġself": 9156,
  "ful": 9157,
  "Ġreaction": 9158,
  "Ġsarcast": 9159,
  "ivalent": 9160,
  "Ġevid": 9161,
  "Ġcompr": 9162,
  "Ġdiets": 9163,
  "Ġmassage": 9164,
  "imat": 9165,
  "Ġamo": 9166,
  "itos": 9167,
  "zsche": 9168,
  "Ġwagon": 9169,
  "usb": 9170,
  "azaar": 9171,
  "Ġconsistent": 9172,
  "Ġbetter": 9173,
  "Ġlayout": 9174,
  "Ġartic": 9175,
  "audio": 9176,
  "Ġobscene": 9177,
  "Ġtheatre": 9178,
  "Ġchap": 9179,
  "Ġjumping": 9180,
  "Ġsexy": 9181,
  "Ġkali": 9182,
  "uito": 9183,
  "Ġmig": 9184,
  "Ġperformance": 9185,
  "uelle": 9186,
  "Ġantib": 9187,
  "igger": 9188,
  "Ġtraf": 9189,
  "Ġhold": 9190,
  "Ġsee": 9191,
  "Ġinitial": 9192,
  "edic": 9193,
  "enaire": 9194,
  "Ġfish": 9195,
  "anal": 9196,
  "Ġembargo": 9197,
  "Ġqui": 9198,
  "bullet": 9199,
  "imon": 9200,
  "Ġmarks": 9201,
  "Ġzones": 9202,
  "Ġuno": 9203,
  "ivan": 9204,
  "Ġdivision": 9205,
  "esis": 9206,
  "Ġpoo": 9207,
  "trim": 9208,
  "Ġestablishment": 9209,
  "Ġdebacle": 9210,
  "records": 9211,
  "ustrial": 9212,
  "blue": 9213,
  "Ġparalle": 9214,
  "rega": 9215,
  "enes": 9216,
  "ores": 9217,
  "Ġtern": 9218,
  "inters": 9219,
  "Ġdashboard": 9220,
  "outine": 9221,
  "Ġbark": 9222,
  "pod": 9223,
  "Ġanarch": 9224,
  "Ġrex": 9225,
  "roof": 9226,
  "Ġassert": 9227,
  "Ġgala": 9228,
  "atrice": 9229,
  "dess": 9230,
  "Ġphoenix": 9231,
  "Ġesk": 9232,
  "Ġcompany": 9233,
  "mitt": 9234,
  "Ġaud": 9235,
  "imb": 9236,
  "Ġwish": 9237,
  "Ġsome": 9238,
  "Ġstereo": 9239,
  "Ġvolleyball": 9240,
  "Ġado": 9241,
  "Ġcolumns": 9242,
  "Ġvandal": 9243,
  "42": 9244,
  "Ġtrends": 9245,
  "street": 9246,
  "processor": 9247,
  "Ġfingers": 9248,
  "uhl": 9249,
  "ymbol": 9250,
  "Ġpractice": 9251,
  "elere": 9252,
  "valu": 9253,
  "Ġsud": 9254,
  "Ġscores": 9255,
  "ilter": 9256,
  "Ġrats": 9257,
  "status": 9258,
  "Ġll": 9259,
  "Ġterra": 9260,
  "refer": 9261,
  "amed": 9262,
  "Ġsuffer": 9263,
  "importe": 9264,
  "Ġbriefing": 9265,
  "bv": 9266,
  "Ġnuit": 9267,
  "Ġindiv": 9268,
  "Ġstring": 9269,
  "Ġdecentral": 9270,
  "Ġsperm": 9271,
  "Ġmontage": 9272,
  "explode": 9273,
  "Ġaffect": 9274,
  "ndo": 9275,
  "bit": 9276,
  "unch": 9277,
  "Ġfiat": 9278,
  "Ġmenus": 9279,
  "ebo": 9280,
  "Ġincl": 9281,
  "ilan": 9282,
  "Ġwere": 9283,
  "arah": 9284,
  "Ġthermometer": 9285,
  "etr": 9286,
  "illus": 9287,
  "Ġpref": 9288,
  "Ġfoo": 9289,
  "Ġyard": 9290,
  "Ġtho": 9291,
  "nut": 9292,
  "Ġstands": 9293,
  "Ġoval": 9294,
  "lux": 9295,
  "Ġairport": 9296,
  "oney": 9297,
  "eba": 9298,
  "uly": 9299,
  "Ġits": 9300,
  "vik": 9301,
  "bid": 9302,
  "Ġcil": 9303,
  "Ġedu": 9304,
  "Ġraster": 9305,
  "anza": 9306,
  "Ġrational": 9307,
  "areth": 9308,
  "Ġconstit": 9309,
  "ierte": 9310,
  "ians": 9311,
  "anja": 9312,
  "Ġmund": 9313,
  "oure": 9314,
  "Ġattitude": 9315,
  "Ġmarsh": 9316,
  "Ġminor": 9317,
  "Ġquil": 9318,
  "yr": 9319,
  "Ġbrute": 9320,
  "imos": 9321,
  "eton": 9322,
  "Ġsculpt": 9323,
  "Ġdere": 9324,
  "walk": 9325,
  "Ġarom": 9326,
  "sek": 9327,
  "Ġhunt": 9328,
  "iron": 9329,
  "Ġplav": 9330,
  "adan": 9331,
  "oba": 9332,
  "utes": 9333,
  "Ġscan": 9334,
  "Ġgw": 9335,
  "Ġbranding": 9336,
  "Ġblitz": 9337,
  "etsk": 9338,
  "Ġprototype": 9339,
  "Ġschwar": 9340,
  "Ġflair": 9341,
  "Ġperform": 9342,
  "Ġattachment": 9343,
  "Ġbasketball": 9344,
  "adiator": 9345,
  "Ġmere": 9346,
  "Ġbeautiful": 9347,
  "Ġforest": 9348,
  "round": 9349,
  "Ġstrike": 9350,
  "Ġsank": 9351,
  "Ġmuch": 9352,
  "gist": 9353,
  "itant": 9354,
  "Ġnich": 9355,
  "cats": 9356,
  "ocal": 9357,
  "oly": 9358,
  "Ġstun": 9359,
  "Ġhomepage": 9360,
  "redo": 9361,
  "ensi": 9362,
  "tails": 9363,
  "Ġzar": 9364,
  "Ġcontra": 9365,
  "Ġahead": 9366,
  "Ġwave": 9367,
  "Ġtau": 9368,
  "alent": 9369,
  "ulent": 9370,
  "iffer": 9371,
  "ledo": 9372,
  "ambia": 9373,
  "liga": 9374,
  "Ġfilmm": 9375,
  "Ġbars": 9376,
  "quent": 9377,
  "Ġcapsule": 9378,
  "Ġole": 9379,
  "Ġkraj": 9380,
  "vester": 9381,
  "uga": 9382,
  "Ġdry": 9383,
  "Ġbutterfly": 9384,
  "Ġfoster": 9385,
  "Ġsporting": 9386,
  "zac": 9387,
  "Ġlittle": 9388,
  "rier": 9389,
  "Ġmoral": 9390,
  "Ġtelesc": 9391,
  "nova": 9392,
  "Ġcortisol": 9393,
  "Ġbenefits": 9394,
  "ilities": 9395,
  "Ġbacon": 9396,
  "Ġpatriarch": 9397,
  "Ġkleinen": 9398,
  "odate": 9399,
  "azel": 9400,
  "worth": 9401,
  "lyn": 9402,
  "ethod": 9403,
  "Ġstew": 9404,
  "Ġdist": 9405,
  "Ġbran": 9406,
  "Ġfocal": 9407,
  "Ġcharter": 9408,
  "Ġspiel": 9409,
  "ird": 9410,
  "Ġhistoria": 9411,
  "Ġpcb": 9412,
  "orsche": 9413,
  "Ġrenders": 9414,
  "Ġdac": 9415,
  "olid": 9416,
  "Ġfederal": 9417,
  "istrat": 9418,
  "Ġprecedent": 9419,
  "that": 9420,
  "rama": 9421,
  "Ġracing": 9422,
  "Ġauthentic": 9423,
  "Ġstraw": 9424,
  "Ġmistr": 9425,
  "Ġbuffalo": 9426,
  "cobra": 9427,
  "sha": 9428,
  "Ġpong": 9429,
  "Ġunters": 9430,
  "Ġenhancing": 9431,
  "ompson": 9432,
  "stype": 9433,
  "beb": 9434,
  "velop": 9435,
  "tram": 9436,
  "Ġpeople": 9437,
  "Ġterminal": 9438,
  "isu": 9439,
  "Ġlease": 9440,
  "nelle": 9441,
  "male": 9442,
  "sembles": 9443,
  "hon": 9444,
  "Ġmultif": 9445,
  "atings": 9446,
  "social": 9447,
  "bulk": 9448,
  "Ġcaus": 9449,
  "Ġnoe": 9450,
  "Ġpm": 9451,
  "Ġmonitors": 9452,
  "Ġallem": 9453,
  "Ġhandic": 9454,
  "Ġces": 9455,
  "Ġwins": 9456,
  "Ġsb": 9457,
  "Ġoverlapping": 9458,
  "Ġchoice": 9459,
  "Ġservices": 9460,
  "lea": 9461,
  "Ġsweater": 9462,
  "eca": 9463,
  "Ġtiger": 9464,
  "orre": 9465,
  "Ġdepr": 9466,
  "pees": 9467,
  "Ġadrenaline": 9468,
  "bum": 9469,
  "Ġsage": 9470,
  "Ġlinea": 9471,
  "Ġbeers": 9472,
  "leys": 9473,
  "Ġstalk": 9474,
  "Ġsymptom": 9475,
  "mani": 9476,
  "Ġcover": 9477,
  "umes": 9478,
  "Ġlokal": 9479,
  "pst": 9480,
  "Ġbabel": 9481,
  "shop": 9482,
  "uni": 9483,
  "Ġcolum": 9484,
  "inand": 9485,
  "Ġmountains": 9486,
  "olon": 9487,
  "ycl": 9488,
  "Ġmiddle": 9489,
  "conduct": 9490,
  "Ġzwar": 9491,
  "uing": 9492,
  "endl": 9493,
  "Ġgrands": 9494,
  "Ġmusica": 9495,
  "ponde": 9496,
  "ency": 9497,
  "arias": 9498,
  "Ġanchor": 9499,
  "fas": 9500,
  "Ġarchetype": 9501,
  "aye": 9502,
  "Ġgeil": 9503,
  "Ġumb": 9504,
  "Ġcolle": 9505,
  "Ġcolor": 9506,
  "ough": 9507,
  "seller": 9508,
  "eut": 9509,
  "Ġshirts": 9510,
  "hydr": 9511,
  "ervoir": 9512,
  "ffi": 9513,
  "Ġsext": 9514,
  "Ġpays": 9515,
  "Ġpizzas": 9516,
  "Ġgp": 9517,
  "Ġhp": 9518,
  "Ġjorn": 9519,
  "printer": 9520,
  "Ġcats": 9521,
  "Ġxp": 9522,
  "mid": 9523,
  "rep": 9524,
  "ismo": 9525,
  "long": 9526,
  "ohn": 9527,
  "irsch": 9528,
  "Ġriver": 9529,
  "mando": 9530,
  "Ġmeans": 9531,
  "Ġcut": 9532,
  "Ġadm": 9533,
  "Ġperso": 9534,
  "acet": 9535,
  "astic": 9536,
  "agina": 9537,
  "Ġseven": 9538,
  "Ġkir": 9539,
  "gin": 9540,
  "ipers": 9541,
  "endi": 9542,
  "Ġgenera": 9543,
  "Ġhints": 9544,
  "entral": 9545,
  "Ġveter": 9546,
  "eyn": 9547,
  "dale": 9548,
  "amaha": 9549,
  "tpl": 9550,
  "Ġnib": 9551,
  "Ġtm": 9552,
  "cla": 9553,
  "Ġinterpol": 9554,
  "boro": 9555,
  "Ġbey": 9556,
  "Ġkod": 9557,
  "Ġsilence": 9558,
  "hb": 9559,
  "Ġcapit": 9560,
  "ogo": 9561,
  "icker": 9562,
  "Ġsay": 9563,
  "omed": 9564,
  "itia": 9565,
  "lit": 9566,
  "ernet": 9567,
  "doors": 9568,
  "Ġreturn": 9569,
  "ipro": 9570,
  "ignal": 9571,
  "Ġpeppers": 9572,
  "enum": 9573,
  "lub": 9574,
  "Ġfactory": 9575,
  "Ġgian": 9576,
  "Ġwy": 9577,
  "Ġplayoff": 9578,
  "28": 9579,
  "Ġfoundation": 9580,
  "Ġmedio": 9581,
  "kir": 9582,
  "Ġyellow": 9583,
  "Ġclinic": 9584,
  "shell": 9585,
  "borough": 9586,
  "Ġlets": 9587,
  "ulpt": 9588,
  "Ġparachute": 9589,
  "Ġantid": 9590,
  "Ġgastr": 9591,
  "cards": 9592,
  "Ġtechno": 9593,
  "aque": 9594,
  "Ġdow": 9595,
  "ract": 9596,
  "Ġreinc": 9597,
  "iren": 9598,
  "Ġanni": 9599,
  "erguson": 9600,
  "lich": 9601,
  "Ġstav": 9602,
  "ptr": 9603,
  "hyp": 9604,
  "kits": 9605,
  "Ġanus": 9606,
  "you": 9607,
  "quer": 9608,
  "ugeot": 9609,
  "action": 9610,
  "Ġsushi": 9611,
  "Ġregisters": 9612,
  "Ġasm": 9613,
  "Ġlith": 9614,
  "bons": 9615,
  "Ġode": 9616,
  "Ġatr": 9617,
  "Ġshot": 9618,
  "comment": 9619,
  "Ġvirt": 9620,
  "Ġemergency": 9621,
  "Ġspeaker": 9622,
  "aml": 9623,
  "acy": 9624,
  "Ġetiquette": 9625,
  "antha": 9626,
  "Ġdunk": 9627,
  "jdk": 9628,
  "Ġcoff": 9629,
  "Ġpard": 9630,
  "gae": 9631,
  "keeper": 9632,
  "Ġtess": 9633,
  "break": 9634,
  "porter": 9635,
  "alan": 9636,
  "nard": 9637,
  "asters": 9638,
  "enas": 9639,
  "iterr": 9640,
  "isor": 9641,
  "bastian": 9642,
  "bourne": 9643,
  "Ġtracer": 9644,
  "Ġsine": 9645,
  "iversite": 9646,
  "Ġmeeting": 9647,
  "Ġtorch": 9648,
  "Ġdevelopment": 9649,
  "ooter": 9650,
  "Ġtin": 9651,
  "Ġclip": 9652,
  "Ġry": 9653,
  "light": 9654,
  "Ġbold": 9655,
  "Ġslam": 9656,
  "alog": 9657,
  "master": 9658,
  "aching": 9659,
  "nier": 9660,
  "Ġregimes": 9661,
  "Ġuu": 9662,
  "cano": 9663,
  "Ġlien": 9664,
  "Ġinterest": 9665,
  "lut": 9666,
  "Ġsaf": 9667,
  "abus": 9668,
  "Ġanatom": 9669,
  "sole": 9670,
  "Ġbureaucr": 9671,
  "opy": 9672,
  "Ġsurvival": 9673,
  "Ġcost": 9674,
  "Ġtube": 9675,
  "lk": 9676,
  "addy": 9677,
  "esthes": 9678,
  "Ġcalle": 9679,
  "Ġsmile": 9680,
  "Ġjeu": 9681,
  "loyd": 9682,
  "Ġfast": 9683,
  "Ġci": 9684,
  "qs": 9685,
  "facts": 9686,
  "Ġcopy": 9687,
  "ossa": 9688,
  "Ġcarn": 9689,
  "Ġalarms": 9690,
  "ittest": 9691,
  "ative": 9692,
  "Ġola": 9693,
  "Ġnegot": 9694,
  "ype": 9695,
  "Ġobst": 9696,
  "oned": 9697,
  "spring": 9698,
  "Ġspur": 9699,
  "Ġlibre": 9700,
  "emas": 9701,
  "Ġresidence": 9702,
  "Ġpartic": 9703,
  "Ġfigur": 9704,
  "shi": 9705,
  "cona": 9706,
  "unique": 9707,
  "Ġerotische": 9708,
  "ponder": 9709,
  "Ġgraffiti": 9710,
  "Ġgeographic": 9711,
  "elsinki": 9712,
  "Ġfall": 9713,
  "pane": 9714,
  "anime": 9715,
  "Ġtelling": 9716,
  "redient": 9717,
  "Ġscreen": 9718,
  "cone": 9719,
  "Ġguerr": 9720,
  "Ġpow": 9721,
  "ext": 9722,
  "Ġestr": 9723,
  "marks": 9724,
  "oriasis": 9725,
  "Ġzam": 9726,
  "zem": 9727,
  "afi": 9728,
  "Ġcase": 9729,
  "Ġprimera": 9730,
  "Ġillust": 9731,
  "tcp": 9732,
  "stag": 9733,
  "uropean": 9734,
  "Ġapple": 9735,
  "Ġprotection": 9736,
  "Ġnem": 9737,
  "Ġrank": 9738,
  "Ġvieux": 9739,
  "Ġintrig": 9740,
  "Ġdessert": 9741,
  "Ġsce": 9742,
  "Ġfabric": 9743,
  "aries": 9744,
  "atio": 9745,
  "Ġwing": 9746,
  "have": 9747,
  "Ġwonders": 9748,
  "Ġcow": 9749,
  "Ġhook": 9750,
  "reas": 9751,
  "Ġtold": 9752,
  "Ġidiot": 9753,
  "ersh": 9754,
  "oci": 9755,
  "mlin": 9756,
  "jab": 9757,
  "Ġepile": 9758,
  "Ġsist": 9759,
  "Ġfine": 9760,
  "Ġkup": 9761,
  "iesel": 9762,
  "itan": 9763,
  "gly": 9764,
  "ziel": 9765,
  "osto": 9766,
  "chemist": 9767,
  "depart": 9768,
  "agements": 9769,
  "Ġsust": 9770,
  "Ġprivilege": 9771,
  "Ġtumult": 9772,
  "Ġanarchist": 9773,
  "cele": 9774,
  "Ġproton": 9775,
  "Ġrendez": 9776,
  "vous": 9777,
  "Ġinch": 9778,
  "riv": 9779,
  "Ġshorts": 9780,
  "Ġcycl": 9781,
  "Ġthinking": 9782,
  "pio": 9783,
  "Ġgt": 9784,
  "Ġhilar": 9785,
  "Ġalb": 9786,
  "resses": 9787,
  "Ġdepartment": 9788,
  "Ġelectronic": 9789,
  "Ġfamily": 9790,
  "Ġplug": 9791,
  "tron": 9792,
  "Ġinterface": 9793,
  "hips": 9794,
  "component": 9795,
  "bn": 9796,
  "math": 9797,
  "Ġbasic": 9798,
  "ivil": 9799,
  "Ġtelev": 9800,
  "dic": 9801,
  "seen": 9802,
  "ecret": 9803,
  "icro": 9804,
  "Ġprojector": 9805,
  "Ġmonitoring": 9806,
  "outes": 9807,
  "aos": 9808,
  "Ġile": 9809,
  "Ġapplic": 9810,
  "Ġyol": 9811,
  "ilyn": 9812,
  "Ġaust": 9813,
  "ungal": 9814,
  "Ġcentral": 9815,
  "bow": 9816,
  "Ġsf": 9817,
  "Ġmonstr": 9818,
  "pb": 9819,
  "ended": 9820,
  "Ġarea": 9821,
  "usch": 9822,
  "Ġrules": 9823,
  "eled": 9824,
  "Ġlv": 9825,
  "eref": 9826,
  "edia": 9827,
  "meet": 9828,
  "Ġeminent": 9829,
  "Ġmarriage": 9830,
  "rodu": 9831,
  "Ġvacuum": 9832,
  "itus": 9833,
  "Ġhypnot": 9834,
  "ozo": 9835,
  "Ġteil": 9836,
  "nak": 9837,
  "Ġsandwich": 9838,
  "vana": 9839,
  "Ġasc": 9840,
  "endent": 9841,
  "Ġnir": 9842,
  "Ġvestib": 9843,
  "izzie": 9844,
  "Ġmatte": 9845,
  "Ġplac": 9846,
  "ipel": 9847,
  "tran": 9848,
  "Ġflop": 9849,
  "Ġconfigur": 9850,
  "Ġknot": 9851,
  "Ġtieten": 9852,
  "anou": 9853,
  "Ġbeauty": 9854,
  "Ġrhe": 9855,
  "chers": 9856,
  "etu": 9857,
  "Ġtemperament": 9858,
  "range": 9859,
  "Ġtranscend": 9860,
  "asion": 9861,
  "izes": 9862,
  "Ġfleet": 9863,
  "Ġburden": 9864,
  "Ġdragon": 9865,
  "iasco": 9866,
  "Ġhospital": 9867,
  "Ġsty": 9868,
  "iris": 9869,
  "tab": 9870,
  "aspers": 9871,
  "ajas": 9872,
  "Ġcheese": 9873,
  "Ġrolls": 9874,
  "Ġvitamin": 9875,
  "Ġwake": 9876,
  "Ġrast": 9877,
  "Ġvlas": 9878,
  "these": 9879,
  "Ġfur": 9880,
  "esor": 9881,
  "Ġtat": 9882,
  "Ġveh": 9883,
  "who": 9884,
  "sr": 9885,
  "etus": 9886,
  "30": 9887,
  "endas": 9888,
  "igon": 9889,
  "Ġchop": 9890,
  "ibus": 9891,
  "Ġrelativ": 9892,
  "Ġdend": 9893,
  "adm": 9894,
  "Ġtherapies": 9895,
  "Ġshampoo": 9896,
  "Ġpants": 9897,
  "elts": 9898,
  "mente": 9899,
  "Ġharbor": 9900,
  "Ġsole": 9901,
  "iques": 9902,
  "borne": 9903,
  "chalk": 9904,
  "Ġsor": 9905,
  "cate": 9906,
  "Ġintoler": 9907,
  "mort": 9908,
  "albums": 9909,
  "Ġana": 9910,
  "Ġpenetr": 9911,
  "Ġsich": 9912,
  "ieux": 9913,
  "Ġfrequ": 9914,
  "Ġbreakfast": 9915,
  "ajo": 9916,
  "Ġlinux": 9917,
  "tera": 9918,
  "Ġade": 9919,
  "Ġcasinos": 9920,
  "ouve": 9921,
  "achi": 9922,
  "Ġmanga": 9923,
  "ared": 9924,
  "brain": 9925,
  "Ġskate": 9926,
  "reak": 9927,
  "Ġopener": 9928,
  "meeting": 9929,
  "ety": 9930,
  "elper": 9931,
  "restaurants": 9932,
  "Ġinfr": 9933,
  "Ġinland": 9934,
  "Ġobserve": 9935,
  "ioso": 9936,
  "Ġensemble": 9937,
  "Ġavocado": 9938,
  "Ġskateboard": 9939,
  "Ġcrazy": 9940,
  "enet": 9941,
  "correct": 9942,
  "ectar": 9943,
  "Ġcharges": 9944,
  "yo": 9945,
  "Ġtrucks": 9946,
  "Ġunm": 9947,
  "Ġattest": 9948,
  "circ": 9949,
  "tras": 9950,
  "inem": 9951,
  "kil": 9952,
  "ocaust": 9953,
  "panse": 9954,
  "Ġkanal": 9955,
  "Ġgreens": 9956,
  "cn": 9957,
  "Ġrotary": 9958,
  "Ġaid": 9959,
  "Ġdug": 9960,
  "alance": 9961,
  "ampus": 9962,
  "Ġmirac": 9963,
  "Ġmilk": 9964,
  "Ġdeutsche": 9965,
  "Ġhaute": 9966,
  "ipzig": 9967,
  "Ġminut": 9968,
  "Ġcritic": 9969,
  "ummies": 9970,
  "Ġshall": 9971,
  "ucose": 9972,
  "ilog": 9973,
  "lien": 9974,
  "monic": 9975,
  "vice": 9976,
  "Ġchecklist": 9977,
  "iteur": 9978,
  "audi": 9979,
  "Ġduck": 9980,
  "aqu": 9981,
  "flex": 9982,
  "Ġpain": 9983,
  "turn": 9984,
  "usa": 9985,
  "Ġempath": 9986,
  "Ġmadd": 9987,
  "Ġbachelor": 9988,
  "alcon": 9989,
  "Ġpec": 9990,
  "Ġcine": 9991,
  "dogs": 9992,
  "Ġfft": 9993,
  "Ġchimpan": 9994,
  "ammo": 9995,
  "ocial": 9996,
  "Ġbash": 9997,
  "urring": 9998,
  "Ġarchitecture": 9999,
  "Ġeas": 10000,
  "Ġtransfers": 10001,
  "Ġplans": 10002,
  "olerance": 10003,
  "song": 10004,
  "Ġmainstream": 10005,
  "Ġvous": 10006,
  "Ġcontinental": 10007,
  "Ġillusion": 10008,
  "Ġhin": 10009,
  "Ġshades": 10010,
  "xis": 10011,
  "ennial": 10012,
  "Ġtyr": 10013,
  "sun": 10014,
  "bj": 10015,
  "lund": 10016,
  "Ġchambers": 10017,
  "Ġmaiden": 10018,
  "Ġmimo": 10019,
  "lys": 10020,
  "Ġorgas": 10021,
  "Ġsev": 10022,
  "Ġsele": 10023,
  "ugu": 10024,
  "Ġreh": 10025,
  "Ġtarg": 10026,
  "Ġji": 10027,
  "eo": 10028,
  "acial": 10029,
  "types": 10030,
  "ibe": 10031,
  "monitor": 10032,
  "Ġcommitment": 10033,
  "aning": 10034,
  "Ġhid": 10035,
  "Ġdz": 10036,
  "Ġquote": 10037,
  "reserve": 10038,
  "olis": 10039,
  "cedure": 10040,
  "uhe": 10041,
  "Ġpercentages": 10042,
  "Ġsis": 10043,
  "concept": 10044,
  "Ġintegral": 10045,
  "Ġplain": 10046,
  "unas": 10047,
  "special": 10048,
  "umat": 10049,
  "teg": 10050,
  "mony": 10051,
  "Ġpies": 10052,
  "Ġamor": 10053,
  "Ġsul": 10054,
  "Ġhk": 10055,
  "Ġruby": 10056,
  "Ġkav": 10057,
  "spa": 10058,
  "sym": 10059,
  "appro": 10060,
  "Ġglu": 10061,
  "Ġswe": 10062,
  "rovers": 10063,
  "uir": 10064,
  "Ġdead": 10065,
  "nell": 10066,
  "ullo": 10067,
  "Ġkommen": 10068,
  "Ġbalance": 10069,
  "Ġtors": 10070,
  "idas": 10071,
  "Ġsoup": 10072,
  "etre": 10073,
  "hatt": 10074,
  "afe": 10075,
  "Ġweekly": 10076,
  "Ġgross": 10077,
  "sylvania": 10078,
  "Ġhollow": 10079,
  "Ġcyc": 10080,
  "Ġwelt": 10081,
  "otal": 10082,
  "Ġsupern": 10083,
  "Ġimpress": 10084,
  "Ġaj": 10085,
  "folders": 10086,
  "Ġdove": 10087,
  "Ġracket": 10088,
  "apple": 10089,
  "obar": 10090,
  "agle": 10091,
  "Ġlanc": 10092,
  "brands": 10093,
  "maj": 10094,
  "arded": 10095,
  "acula": 10096,
  "ahu": 10097,
  "cp": 10098,
  "olumbia": 10099,
  "izona": 10100,
  "Ġamis": 10101,
  "Ġprolet": 10102,
  "Ġinkl": 10103,
  "Ġtoy": 10104,
  "udio": 10105,
  "Ġprofil": 10106,
  "ograd": 10107,
  "Ġiz": 10108,
  "ayne": 10109,
  "Ġrooft": 10110,
  "Ġschn": 10111,
  "Ġluck": 10112,
  "furt": 10113,
  "prim": 10114,
  "Ġinstr": 10115,
  "ouses": 10116,
  "odox": 10117,
  "Ġsmall": 10118,
  "Ġsach": 10119,
  "Ġhomer": 10120,
  "pek": 10121,
  "phet": 10122,
  "Ġbust": 10123,
  "Ġcausal": 10124,
  "Ġstone": 10125,
  "phis": 10126,
  "aston": 10127,
  "bury": 10128,
  "Ġchart": 10129,
  "Ġwoman": 10130,
  "Ġaway": 10131,
  "Ġthree": 10132,
  "Ġsongs": 10133,
  "Ġexerc": 10134,
  "Ġreservoir": 10135,
  "elter": 10136,
  "gary": 10137,
  "Ġmarry": 10138,
  "Ġmuff": 10139,
  "dart": 10140,
  "Ġsouvenir": 10141,
  "agal": 10142,
  "Ġnop": 10143,
  "Ġzum": 10144,
  "uden": 10145,
  "Ġdomaine": 10146,
  "Ġric": 10147,
  "Ġmotion": 10148,
  "aines": 10149,
  "pure": 10150,
  "aping": 10151,
  "Ġfiber": 10152,
  "Ġbrigade": 10153,
  "Ġpollen": 10154,
  "Ġdine": 10155,
  "krom": 10156,
  "Ġfaz": 10157,
  "Ġexcel": 10158,
  "Ġtod": 10159,
  "Ġdark": 10160,
  "Ġrar": 10161,
  "etchup": 10162,
  "arena": 10163,
  "Ġpiss": 10164,
  "quel": 10165,
  "Ġbitch": 10166,
  "Ġsho": 10167,
  "watch": 10168,
  "menu": 10169,
  "zzarella": 10170,
  "Ġhors": 10171,
  "Ġleast": 10172,
  "Ġzombie": 10173,
  "Ġbowling": 10174,
  "Ġbouquet": 10175,
  "cert": 10176,
  "Ġsuic": 10177,
  "Ġscri": 10178,
  "ikal": 10179,
  "Ġbard": 10180,
  "alam": 10181,
  "Ġchez": 10182,
  "rb": 10183,
  "Ġpz": 10184,
  "visual": 10185,
  "Ġsketches": 10186,
  "aky": 10187,
  "Ġawards": 10188,
  "Ġmime": 10189,
  "Ġsick": 10190,
  "Ġwarn": 10191,
  "Ġeid": 10192,
  "eward": 10193,
  "Ġtoxic": 10194,
  "regon": 10195,
  "Ġsoul": 10196,
  "Ġexpl": 10197,
  "ycled": 10198,
  "nesty": 10199,
  "Ġshin": 10200,
  "sburgh": 10201,
  "cast": 10202,
  "allah": 10203,
  "Ġbona": 10204,
  "Ġhackers": 10205,
  "Ġlarge": 10206,
  "Ġsimul": 10207,
  "Ġkami": 10208,
  "proof": 10209,
  "Ġgirl": 10210,
  "rollers": 10211,
  "errar": 10212,
  "Ġcompil": 10213,
  "Ġfinancial": 10214,
  "Ġpolis": 10215,
  "yny": 10216,
  "abama": 10217,
  "ewed": 10218,
  "olum": 10219,
  "urent": 10220,
  "hw": 10221,
  "Ġay": 10222,
  "shima": 10223,
  "Ġbec": 10224,
  "forum": 10225,
  "tic": 10226,
  "Ġrecycle": 10227,
  "Ġantivirus": 10228,
  "acin": 10229,
  "Ġsubsidi": 10230,
  "Ġboring": 10231,
  "Ġnett": 10232,
  "Ġextremist": 10233,
  "fire": 10234,
  "lew": 10235,
  "Ġcomeback": 10236,
  "Ġgrou": 10237,
  "hurst": 10238,
  "Ġpais": 10239,
  "mob": 10240,
  "aca": 10241,
  "born": 10242,
  "rac": 10243,
  "Ġcri": 10244,
  "ernes": 10245,
  "Ġindependent": 10246,
  "Ġelevation": 10247,
  "made": 10248,
  "Ġhood": 10249,
  "yor": 10250,
  "Ġbenef": 10251,
  "rimp": 10252,
  "Ġlounge": 10253,
  "Ġsamo": 10254,
  "Ġnous": 10255,
  "Ġstif": 10256,
  "sing": 10257,
  "attr": 10258,
  "Ġpolite": 10259,
  "illage": 10260,
  "Ġwoo": 10261,
  "Ġequivalent": 10262,
  "Ġpixels": 10263,
  "Ġvara": 10264,
  "Ġhale": 10265,
  "tor": 10266,
  "emies": 10267,
  "Ġgroup": 10268,
  "care": 10269,
  "shows": 10270,
  "Ġplanners": 10271,
  "Ġcos": 10272,
  "efe": 10273,
  "mem": 10274,
  "sent": 10275,
  "Ġveto": 10276,
  "Ġshar": 10277,
  "Ġapache": 10278,
  "icks": 10279,
  "rots": 10280,
  "ibr": 10281,
  "bab": 10282,
  "Ġcous": 10283,
  "pez": 10284,
  "Ġflyers": 10285,
  "Ġtodd": 10286,
  "Ġprolong": 10287,
  "Ġlenders": 10288,
  "Ġforever": 10289,
  "Ġfleece": 10290,
  "Ġsedan": 10291,
  "ustralian": 10292,
  "Ġtener": 10293,
  "occ": 10294,
  "arker": 10295,
  "ince": 10296,
  "Ġprince": 10297,
  "ioni": 10298,
  "arms": 10299,
  "Ġanyway": 10300,
  "edm": 10301,
  "Ġpocket": 10302,
  "idget": 10303,
  "Ġproducers": 10304,
  "quiz": 10305,
  "oct": 10306,
  "erty": 10307,
  "Ġinterviewer": 10308,
  "etik": 10309,
  "wu": 10310,
  "each": 10311,
  "teams": 10312,
  "protocol": 10313,
  "vid": 10314,
  "oce": 10315,
  "atical": 10316,
  "Ġcredits": 10317,
  "vir": 10318,
  "recent": 10319,
  "atemala": 10320,
  "Ġmuseums": 10321,
  "owitz": 10322,
  "phi": 10323,
  "Ġnihil": 10324,
  "ivent": 10325,
  "Ġsurre": 10326,
  "odos": 10327,
  "Ġprospect": 10328,
  "isol": 10329,
  "Ġhimself": 10330,
  "uche": 10331,
  "Ġamel": 10332,
  "ilda": 10333,
  "Ġhappening": 10334,
  "ight": 10335,
  "inness": 10336,
  "Ġvoy": 10337,
  "Ġlover": 10338,
  "Ġmuc": 10339,
  "hort": 10340,
  "Ġour": 10341,
  "Ġsher": 10342,
  "Ġturbulent": 10343,
  "Ġcomme": 10344,
  "firm": 10345,
  "Ġwomen": 10346,
  "Ġcread": 10347,
  "Ġcovers": 10348,
  "Ġsoit": 10349,
  "Ġmove": 10350,
  "Ġdd": 10351,
  "emoc": 10352,
  "Ġeconomic": 10353,
  "institution": 10354,
  "auc": 10355,
  "agi": 10356,
  "but": 10357,
  "dou": 10358,
  "Ġgratuite": 10359,
  "Ġgratuit": 10360,
  "Ġdile": 10361,
  "mmas": 10362,
  "Ġslog": 10363,
  "Ġbuys": 10364,
  "uses": 10365,
  "Ġcomed": 10366,
  "Ġlock": 10367,
  "cri": 10368,
  "rices": 10369,
  "Ġnond": 10370,
  "Ġcg": 10371,
  "ouis": 10372,
  "hes": 10373,
  "py": 10374,
  "ourke": 10375,
  "folk": 10376,
  "Ġflam": 10377,
  "enco": 10378,
  "bing": 10379,
  "Ġtf": 10380,
  "adele": 10381,
  "130": 10382,
  "impact": 10383,
  "scenario": 10384,
  "Ġdiscovery": 10385,
  "Ġsoo": 10386,
  "avar": 10387,
  "grav": 10388,
  "Ġcommunity": 10389,
  "Ġperverse": 10390,
  "Ġfinance": 10391,
  "Ġconscience": 10392,
  "Ġseparat": 10393,
  "deme": 10394,
  "nte": 10395,
  "Ġclandest": 10396,
  "Ġelectr": 10397,
  "fund": 10398,
  "amental": 10399,
  "Ġextravag": 10400,
  "baum": 10401,
  "orean": 10402,
  "ubes": 10403,
  "Ġvz": 10404,
  "esso": 10405,
  "istro": 10406,
  "Ġpostal": 10407,
  "abee": 10408,
  "akistan": 10409,
  "taken": 10410,
  "blink": 10411,
  "Ġhalluc": 10412,
  "Ġfaith": 10413,
  "fair": 10414,
  "Ġomega": 10415,
  "Ġsabotage": 10416,
  "dense": 10417,
  "Ġdiscrete": 10418,
  "Ġsquad": 10419,
  "Ġtox": 10420,
  "endale": 10421,
  "Ġfet": 10422,
  "stral": 10423,
  "Ġsuperv": 10424,
  "orrect": 10425,
  "Ġtransit": 10426,
  "lest": 10427,
  "Ġcoke": 10428,
  "Ġoffice": 10429,
  "boys": 10430,
  "uffer": 10431,
  "Ġgulp": 10432,
  "apyrus": 10433,
  "Ġbieten": 10434,
  "elines": 10435,
  "Ġamen": 10436,
  "Ġconce": 10437,
  "Ġmillennia": 10438,
  "igaret": 10439,
  "Ġalias": 10440,
  "Ġornament": 10441,
  "Ġrien": 10442,
  "Ġmein": 10443,
  "Ġregiment": 10444,
  "Ġsapi": 10445,
  "ologna": 10446,
  "uda": 10447,
  "Ġduk": 10448,
  "zzo": 10449,
  "Ġuniversity": 10450,
  "Ġmurm": 10451,
  "Ġthing": 10452,
  "Ġpreview": 10453,
  "Ġplanes": 10454,
  "Ġpatch": 10455,
  "rapper": 10456,
  "sea": 10457,
  "Ġarsen": 10458,
  "bios": 10459,
  "Ġdancing": 10460,
  "implement": 10461,
  "Ġinput": 10462,
  "Ġparameters": 10463,
  "Ġjustice": 10464,
  "medi": 10465,
  "Ġcyber": 10466,
  "Ġimperfect": 10467,
  "Ġwide": 10468,
  "Ġtoto": 10469,
  "Ġexplo": 10470,
  "Ġoperational": 10471,
  "Ġsociety": 10472,
  "Ġtools": 10473,
  "Ġdiscre": 10474,
  "Ġhaze": 10475,
  "Ġaction": 10476,
  "Ġhoc": 10477,
  "mul": 10478,
  "Ġindustrial": 10479,
  "Ġley": 10480,
  "intent": 10481,
  "itude": 10482,
  "elas": 10483,
  "enstein": 10484,
  "Ġmailing": 10485,
  "Ġunderst": 10486,
  "atement": 10487,
  "cola": 10488,
  "stick": 10489,
  "Ġordin": 10490,
  "Ġtracks": 10491,
  "Ġhuh": 10492,
  "elop": 10493,
  "olve": 10494,
  "Ġdlg": 10495,
  "isle": 10496,
  "Ġprefer": 10497,
  "Ġscout": 10498,
  "esses": 10499,
  "Ġcrypto": 10500,
  "Ġdeals": 10501,
  "Ġpg": 10502,
  "uppe": 10503,
  "anches": 10504,
  "lude": 10505,
  "ricula": 10506,
  "Ġcouncil": 10507,
  "Ġnc": 10508,
  "Ġaria": 10509,
  "Ġsectors": 10510,
  "Ġabsolut": 10511,
  "Ġoperators": 10512,
  "Ġlesb": 10513,
  "Ġkid": 10514,
  "edges": 10515,
  "Ġlipstick": 10516,
  "istes": 10517,
  "Ġhik": 10518,
  "Ġdiscret": 10519,
  "Ġdressing": 10520,
  "Ġslab": 10521,
  "Ġpt": 10522,
  "apis": 10523,
  "succ": 10524,
  "Ġindonesia": 10525,
  "Ġcorporation": 10526,
  "umbo": 10527,
  "Ġtheir": 10528,
  "ional": 10529,
  "constant": 10530,
  "uger": 10531,
  "ioneer": 10532,
  "Ġgit": 10533,
  "utz": 10534,
  "Ġrooms": 10535,
  "olic": 10536,
  "erville": 10537,
  "Ġsarc": 10538,
  "umper": 10539,
  "Ġminus": 10540,
  "Ġape": 10541,
  "apult": 10542,
  "antas": 10543,
  "Ġmang": 10544,
  "Ġgangs": 10545,
  "perse": 10546,
  "asto": 10547,
  "Ġsind": 10548,
  "Ġvegas": 10549,
  "Ġunderground": 10550,
  "erring": 10551,
  "Ġhops": 10552,
  "ifier": 10553,
  "Ġrange": 10554,
  "icare": 10555,
  "Ġdear": 10556,
  "pj": 10557,
  "overe": 10558,
  "Ġdrinkers": 10559,
  "sov": 10560,
  "Ġcess": 10561,
  "ampton": 10562,
  "Ġharbour": 10563,
  "quin": 10564,
  "egie": 10565,
  "istrib": 10566,
  "Ġkeyboard": 10567,
  "Ġhunting": 10568,
  "Ġpunct": 10569,
  "Ġsoir": 10570,
  "Ġhis": 10571,
  "esda": 10572,
  "rut": 10573,
  "alls": 10574,
  "amilies": 10575,
  "ocus": 10576,
  "daf": 10577,
  "Ġvamp": 10578,
  "Ġchildren": 10579,
  "joy": 10580,
  "Ġsixth": 10581,
  "Ġelites": 10582,
  "Ġmamma": 10583,
  "thal": 10584,
  "Ġeast": 10585,
  "omy": 10586,
  "rico": 10587,
  "Ġdaily": 10588,
  "Ġsprink": 10589,
  "Ġchannel": 10590,
  "wolf": 10591,
  "ucks": 10592,
  "Ġground": 10593,
  "quil": 10594,
  "rs": 10595,
  "original": 10596,
  "Ġwomens": 10597,
  "assel": 10598,
  "Ġmint": 10599,
  "Ġexpos": 10600,
  "istor": 10601,
  "Ġfunding": 10602,
  "Ġshould": 10603,
  "Ġbenefit": 10604,
  "Ġincorrect": 10605,
  "Ġgrasp": 10606,
  "Ġquality": 10607,
  "Ġgm": 10608,
  "ertz": 10609,
  "Ġsemi": 10610,
  "Ġnowhere": 10611,
  "Ġlingu": 10612,
  "Ġfreak": 10613,
  "Ġpine": 10614,
  "Ġrop": 10615,
  "Ġnig": 10616,
  "Ġsocket": 10617,
  "aisy": 10618,
  "Ġinterv": 10619,
  "orama": 10620,
  "mium": 10621,
  "info": 10622,
  "glomer": 10623,
  "Ġenzym": 10624,
  "rike": 10625,
  "container": 10626,
  "odb": 10627,
  "Ġlonely": 10628,
  "Ġtz": 10629,
  "Ġbanners": 10630,
  "Ġyahoo": 10631,
  "Ġcham": 10632,
  "Ġschemas": 10633,
  "Ġcorners": 10634,
  "Ġconference": 10635,
  "mf": 10636,
  "Ġcoco": 10637,
  "Ġwaves": 10638,
  "Ġstick": 10639,
  "rna": 10640,
  "invite": 10641,
  "Ġminute": 10642,
  "Ġranch": 10643,
  "ctica": 10644,
  "iosk": 10645,
  "elsing": 10646,
  "bris": 10647,
  "Ġinefficient": 10648,
  "Ġmalaria": 10649,
  "alph": 10650,
  "Ġdividend": 10651,
  "odka": 10652,
  "agement": 10653,
  "bd": 10654,
  "Ġtestcase": 10655,
  "vara": 10656,
  "Ġbs": 10657,
  "Ġdell": 10658,
  "Ġzem": 10659,
  "ypo": 10660,
  "celona": 10661,
  "Ġhair": 10662,
  "lia": 10663,
  "Ġnouveau": 10664,
  "mia": 10665,
  "inel": 10666,
  "pector": 10667,
  "jug": 10668,
  "Ġtower": 10669,
  "Ġtowel": 10670,
  "Ġdialog": 10671,
  "Ġpk": 10672,
  "Ġcurry": 10673,
  "Ġtrivial": 10674,
  "Ġpursuit": 10675,
  "Ġct": 10676,
  "urette": 10677,
  "support": 10678,
  "Ġmorning": 10679,
  "Ġshuttle": 10680,
  "Ġagain": 10681,
  "Ġchild": 10682,
  "agar": 10683,
  "Ġvip": 10684,
  "accine": 10685,
  "Ġarp": 10686,
  "Ġspace": 10687,
  "seed": 10688,
  "lica": 10689,
  "asia": 10690,
  "chs": 10691,
  "irmingham": 10692,
  "Ġclin": 10693,
  "Ġjav": 10694,
  "Ġgrammar": 10695,
  "edes": 10696,
  "oui": 10697,
  "used": 10698,
  "argar": 10699,
  "Ġbrothers": 10700,
  "Ġaras": 10701,
  "Ġhoops": 10702,
  "rios": 10703,
  "Ġsteril": 10704,
  "Ġbac": 10705,
  "Ġpornos": 10706,
  "Ġqual": 10707,
  "hp": 10708,
  "acker": 10709,
  "Ġplata": 10710,
  "arda": 10711,
  "Ġlassen": 10712,
  "ansson": 10713,
  "sig": 10714,
  "Ġhos": 10715,
  "ream": 10716,
  "Ġmundial": 10717,
  "Ġhardcore": 10718,
  "Ġblackout": 10719,
  "Ġescap": 10720,
  "public": 10721,
  "arser": 10722,
  "ajan": 10723,
  "vor": 10724,
  "Ġkov": 10725,
  "Ġthese": 10726,
  "Ġdispatch": 10727,
  "Ġirrelevant": 10728,
  "Ġfox": 10729,
  "Ġtandem": 10730,
  "owers": 10731,
  "nts": 10732,
  "Ġdeficit": 10733,
  "Ġbiom": 10734,
  "Ġmulti": 10735,
  "Ġclassic": 10736,
  "ivist": 10737,
  "Ġresid": 10738,
  "jb": 10739,
  "Ġfluor": 10740,
  "mez": 10741,
  "Ġgrew": 10742,
  "Ġlanguage": 10743,
  "cca": 10744,
  "Ġkend": 10745,
  "shot": 10746,
  "onal": 10747,
  "Ġlibero": 10748,
  "rost": 10749,
  "prog": 10750,
  "Ġcog": 10751,
  "Ġcamel": 10752,
  "lung": 10753,
  "abstract": 10754,
  "Ġmodules": 10755,
  "cool": 10756,
  "charm": 10757,
  "wright": 10758,
  "Ġcocktails": 10759,
  "Ġbic": 10760,
  "Ġcontempl": 10761,
  "Ġporta": 10762,
  "Ġhinter": 10763,
  "Ġhorror": 10764,
  "ertype": 10765,
  "ischen": 10766,
  "ativ": 10767,
  "emodel": 10768,
  "vy": 10769,
  "Ġrecycl": 10770,
  "Ġklar": 10771,
  "nce": 10772,
  "Ġroyalty": 10773,
  "mek": 10774,
  "ensure": 10775,
  "Ġflag": 10776,
  "Ġnucle": 10777,
  "Ġdah": 10778,
  "ambre": 10779,
  "Ġproven": 10780,
  "abar": 10781,
  "Ġsha": 10782,
  "minimum": 10783,
  "Ġmodo": 10784,
  "24": 10785,
  "endant": 10786,
  "ented": 10787,
  "Ġinterp": 10788,
  "Ġsilicone": 10789,
  "reau": 10790,
  "assic": 10791,
  "bash": 10792,
  "inq": 10793,
  "Ġarte": 10794,
  "Ġnode": 10795,
  "Ġsmash": 10796,
  "Ġtb": 10797,
  "ching": 10798,
  "faith": 10799,
  "Ġherbal": 10800,
  "Ġkonk": 10801,
  "52": 10802,
  "nees": 10803,
  "Ġpadr": 10804,
  "phy": 10805,
  "sdale": 10806,
  "Ġsoma": 10807,
  "ruh": 10808,
  "Ġvillage": 10809,
  "iao": 10810,
  "ilian": 10811,
  "Ġseniors": 10812,
  "Ġcoax": 10813,
  "Ġheat": 10814,
  "sembl": 10815,
  "Ġwhistle": 10816,
  "Ġdepend": 10817,
  "Ġstor": 10818,
  "Ġdetach": 10819,
  "bz": 10820,
  "Ġemploy": 10821,
  "ability": 10822,
  "Ġbottleneck": 10823,
  "annon": 10824,
  "awe": 10825,
  "itime": 10826,
  "mv": 10827,
  "nergie": 10828,
  "Ġbased": 10829,
  "inged": 10830,
  "Ġwz": 10831,
  "udded": 10832,
  "Ġborder": 10833,
  "bands": 10834,
  "Ġalpha": 10835,
  "Ġchat": 10836,
  "lec": 10837,
  "Ġbk": 10838,
  "abble": 10839,
  "ashtra": 10840,
  "Ġlibido": 10841,
  "Ġcategor": 10842,
  "Ġaur": 10843,
  "otr": 10844,
  "Ġcoy": 10845,
  "amines": 10846,
  "Ġwatts": 10847,
  "Ġwcs": 10848,
  "util": 10849,
  "Ġboxer": 10850,
  "Ġsever": 10851,
  "yre": 10852,
  "uppen": 10853,
  "achs": 10854,
  "amment": 10855,
  "Ġdors": 10856,
  "Ġmw": 10857,
  "pins": 10858,
  "Ġplains": 10859,
  "black": 10860,
  "Ġweit": 10861,
  "issy": 10862,
  "atan": 10863,
  "eza": 10864,
  "Ġkit": 10865,
  "Ġcontingent": 10866,
  "Ġalc": 10867,
  "Ġhaci": 10868,
  "Ġtwenty": 10869,
  "Ġalgebra": 10870,
  "ucky": 10871,
  "Ġderby": 10872,
  "ospel": 10873,
  "Ġmoder": 10874,
  "Ġclientele": 10875,
  "axe": 10876,
  "cut": 10877,
  "Ġlunches": 10878,
  "Ġmoot": 10879,
  "steel": 10880,
  "blank": 10881,
  "enkins": 10882,
  "deen": 10883,
  "Ġbottom": 10884,
  "Ġdealers": 10885,
  "cad": 10886,
  "Ġcome": 10887,
  "ynchron": 10888,
  "Ġconna": 10889,
  "pei": 10890,
  "ogue": 10891,
  "Ġnow": 10892,
  "Ġthere": 10893,
  "Ġsprings": 10894,
  "tg": 10895,
  "emsp": 10896,
  "lsruhe": 10897,
  "ilder": 10898,
  "Ġbath": 10899,
  "ixe": 10900,
  "Ġlimit": 10901,
  "tingham": 10902,
  "Ġcaptains": 10903,
  "Ġexcell": 10904,
  "Ġvitae": 10905,
  "Ġparticipant": 10906,
  "Ġinaug": 10907,
  "Ġpeek": 10908,
  "angler": 10909,
  "Ġeden": 10910,
  "Ġrhythm": 10911,
  "Ġholiday": 10912,
  "Ġice": 10913,
  "Ġtrack": 10914,
  "Ġtowers": 10915,
  "olvers": 10916,
  "sko": 10917,
  "asn": 10918,
  "Ġgrape": 10919,
  "Ġcliente": 10920,
  "Ġpuppy": 10921,
  "unsch": 10922,
  "Ġdrain": 10923,
  "Ġknots": 10924,
  "nds": 10925,
  "Ġbb": 10926,
  "Ġmr": 10927,
  "building": 10928,
  "Ġcartoons": 10929,
  "Ġdire": 10930,
  "eus": 10931,
  "enade": 10932,
  "Ġaim": 10933,
  "earch": 10934,
  "maf": 10935,
  "ponsor": 10936,
  "Ġhai": 10937,
  "Ġscre": 10938,
  "amy": 10939,
  "coll": 10940,
  "axis": 10941,
  "Ġtato": 10942,
  "Ġslut": 10943,
  "Ġuden": 10944,
  "wake": 10945,
  "isia": 10946,
  "Ġmiles": 10947,
  "Ġescal": 10948,
  "Ġfec": 10949,
  "Ġtc": 10950,
  "roit": 10951,
  "Ġfive": 10952,
  "Ġberry": 10953,
  "yster": 10954,
  "Ġwho": 10955,
  "agic": 10956,
  "ifa": 10957,
  "ppelin": 10958,
  "Ġspaces": 10959,
  "uttle": 10960,
  "signal": 10961,
  "Ġsingles": 10962,
  "Ġacts": 10963,
  "cit": 10964,
  "ogr": 10965,
  "Ġsweet": 10966,
  "Ġhelium": 10967,
  "unks": 10968,
  "Ġbarg": 10969,
  "ollah": 10970,
  "zh": 10971,
  "perator": 10972,
  "arov": 10973,
  "fsp": 10974,
  "lv": 10975,
  "asaki": 10976,
  "Ġsamp": 10977,
  "Ġcontrib": 10978,
  "Ġfilmmaker": 10979,
  "200": 10980,
  "Ġwarrior": 10981,
  "providers": 10982,
  "Ġproviders": 10983,
  "Ġgrund": 10984,
  "Ġinformant": 10985,
  "otic": 10986,
  "utsch": 10987,
  "Ġsurveillance": 10988,
  "13": 10989,
  "Ġcoder": 10990,
  "inp": 10991,
  "associ": 10992,
  "Ġdost": 10993,
  "Ġlanz": 10994,
  "Ġbutt": 10995,
  "Ġcole": 10996,
  "Ġpercept": 10997,
  "opath": 10998,
  "Ġtrials": 10999,
  "Ġplayoffs": 11000,
  "enia": 11001,
  "Ġstarters": 11002,
  "echo": 11003,
  "kill": 11004,
  "ases": 11005,
  "wc": 11006,
  "Ġcolour": 11007,
  "Ġfilters": 11008,
  "imus": 11009,
  "Ġvalue": 11010,
  "units": 11011,
  "mma": 11012,
  "arks": 11013,
  "Ġaround": 11014,
  "Ġmarket": 11015,
  "lover": 11016,
  "Ġquota": 11017,
  "Ġtl": 11018,
  "uida": 11019,
  "Ġsecure": 11020,
  "jad": 11021,
  "etc": 11022,
  "tank": 11023,
  "Ġcrashes": 11024,
  "Ġhast": 11025,
  "Ġproves": 11026,
  "nan": 11027,
  "swana": 11028,
  "caf": 11029,
  "impl": 11030,
  "erox": 11031,
  "Ġchr": 11032,
  "ited": 11033,
  "score": 11034,
  "Ġmagic": 11035,
  "Ġrule": 11036,
  "Ġscl": 11037,
  "cat": 11038,
  "isque": 11039,
  "Ġner": 11040,
  "Ġprinces": 11041,
  "anded": 11042,
  "Ġgoalie": 11043,
  "kus": 11044,
  "arez": 11045,
  "game": 11046,
  "Ġdib": 11047,
  "isson": 11048,
  "esi": 11049,
  "laz": 11050,
  "lauf": 11051,
  "Ġslots": 11052,
  "ampoline": 11053,
  "alli": 11054,
  "Ġquo": 11055,
  "Ġuri": 11056,
  "Ġoak": 11057,
  "Ġshots": 11058,
  "Ġorn": 11059,
  "Ġox": 11060,
  "Ġeasy": 11061,
  "Ġyears": 11062,
  "Ġfabulous": 11063,
  "Ġeffects": 11064,
  "jabi": 11065,
  "Ġfantasy": 11066,
  "Ġown": 11067,
  "grave": 11068,
  "Ġcurt": 11069,
  "Ġdawn": 11070,
  "attro": 11071,
  "Ġyoure": 11072,
  "Ġcaramel": 11073,
  "Ġwax": 11074,
  "Ġboyfriend": 11075,
  "Ġdela": 11076,
  "zell": 11077,
  "orks": 11078,
  "Ġcarte": 11079,
  "Ġleave": 11080,
  "Ġrainbow": 11081,
  "Ġgoing": 11082,
  "git": 11083,
  "Ġplanner": 11084,
  "Ġhistory": 11085,
  "Ġinfinit": 11086,
  "position": 11087,
  "Ġteacher": 11088,
  "Ġroutines": 11089,
  "than": 11090,
  "ties": 11091,
  "redd": 11092,
  "spin": 11093,
  "razil": 11094,
  "Ġbuen": 11095,
  "quo": 11096,
  "icide": 11097,
  "Ġreloc": 11098,
  "iversit": 11099,
  "label": 11100,
  "Ġfora": 11101,
  "respons": 11102,
  "Ġlearning": 11103,
  "Ġknex": 11104,
  "Ġpartie": 11105,
  "Ġwinner": 11106,
  "agenda": 11107,
  "Ġsanit": 11108,
  "Ġtable": 11109,
  "Ġsyll": 11110,
  "egas": 11111,
  "igure": 11112,
  "Ġpepp": 11113,
  "reh": 11114,
  "Ġskyline": 11115,
  "context": 11116,
  "decor": 11117,
  "iffe": 11118,
  "ucs": 11119,
  "Ġzim": 11120,
  "fly": 11121,
  "mercial": 11122,
  "track": 11123,
  "Ġsep": 11124,
  "micro": 11125,
  "amu": 11126,
  "Ġflyer": 11127,
  "Ġxa": 11128,
  "nez": 11129,
  "Ġmne": 11130,
  "erras": 11131,
  "frag": 11132,
  "icates": 11133,
  "Ġwaits": 11134,
  "foo": 11135,
  "Ġholy": 11136,
  "amus": 11137,
  "Ġpeaks": 11138,
  "auge": 11139,
  "Ġmatrix": 11140,
  "aurant": 11141,
  "Ġopat": 11142,
  "private": 11143,
  "inject": 11144,
  "Ġemb": 11145,
  "Ġcapt": 11146,
  "amak": 11147,
  "ideal": 11148,
  "plex": 11149,
  "Ġpaternal": 11150,
  "Ġclimax": 11151,
  "Ġmasc": 11152,
  "Ġdiff": 11153,
  "aed": 11154,
  "Ġnumer": 11155,
  "Ġgoodwill": 11156,
  "Ġniche": 11157,
  "Ġmennes": 11158,
  "Ġcave": 11159,
  "Ġgains": 11160,
  "Ġshakes": 11161,
  "Ġextr": 11162,
  "Ġdil": 11163,
  "consult": 11164,
  "lom": 11165,
  "Ġstupid": 11166,
  "estic": 11167,
  "Ġcollo": 11168,
  "ijkl": 11169,
  "adium": 11170,
  "Ġeve": 11171,
  "Ġminimalist": 11172,
  "uat": 11173,
  "Ġbits": 11174,
  "Ġeverybody": 11175,
  "guard": 11176,
  "Ġdov": 11177,
  "Ġinterf": 11178,
  "Ġpadding": 11179,
  "appings": 11180,
  "Ġturbines": 11181,
  "Ġcorrespond": 11182,
  "Ġadministration": 11183,
  "fed": 11184,
  "sold": 11185,
  "Ġjardin": 11186,
  "Ġsore": 11187,
  "Ġhemat": 11188,
  "Ġwann": 11189,
  "pond": 11190,
  "otre": 11191,
  "ekim": 11192,
  "icol": 11193,
  "ieri": 11194,
  "Ġsak": 11195,
  "Ġprivileges": 11196,
  "vas": 11197,
  "gado": 11198,
  "oje": 11199,
  "base": 11200,
  "lemen": 11201,
  "Ġaren": 11202,
  "Ġvolts": 11203,
  "iband": 11204,
  "rows": 11205,
  "Ġguns": 11206,
  "arty": 11207,
  "Ġdiss": 11208,
  "Ġpert": 11209,
  "bomb": 11210,
  "olith": 11211,
  "ateau": 11212,
  "Ġnations": 11213,
  "dol": 11214,
  "Ġgeile": 11215,
  "ocaly": 11216,
  "oho": 11217,
  "Ġfaire": 11218,
  "Ġpatience": 11219,
  "ued": 11220,
  "Ġmonk": 11221,
  "pies": 11222,
  "Ġwelfare": 11223,
  "Ġpornofil": 11224,
  "Ġsass": 11225,
  "otine": 11226,
  "Ġguts": 11227,
  "Ġtale": 11228,
  "Ġquant": 11229,
  "orch": 11230,
  "Ġbub": 11231,
  "insk": 11232,
  "openh": 11233,
  "Ġshort": 11234,
  "Ġepisode": 11235,
  "Ġremedies": 11236,
  "orc": 11237,
  "Ġintros": 11238,
  "Ġspecific": 11239,
  "phony": 11240,
  "Ġmend": 11241,
  "Ġdella": 11242,
  "Ġplut": 11243,
  "azzo": 11244,
  "ppo": 11245,
  "Ġchief": 11246,
  "olan": 11247,
  "Ġpimp": 11248,
  "Ġbuggy": 11249,
  "Ġhighway": 11250,
  "cin": 11251,
  "central": 11252,
  "Ġguys": 11253,
  "Ġrelations": 11254,
  "Ġmv": 11255,
  "Ġsnack": 11256,
  "baby": 11257,
  "Ġsweat": 11258,
  "Ġtrivia": 11259,
  "Ġoperating": 11260,
  "Ġthird": 11261,
  "Ġcommunities": 11262,
  "Ġamazon": 11263,
  "cash": 11264,
  "Ġpack": 11265,
  "Ġtad": 11266,
  "case": 11267,
  "Ġbrains": 11268,
  "Ġcompanies": 11269,
  "Ġemotions": 11270,
  "Ġutilis": 11271,
  "Ġtake": 11272,
  "Ġexplor": 11273,
  "Ġlaptops": 11274,
  "Ġinfer": 11275,
  "Ġprimary": 11276,
  "Ġareas": 11277,
  "Ġconglomer": 11278,
  "reflect": 11279,
  "Ġrsp": 11280,
  "chemas": 11281,
  "urbed": 11282,
  "idea": 11283,
  "Ġtuto": 11284,
  "Ġconfession": 11285,
  "nj": 11286,
  "ivol": 11287,
  "Ġbright": 11288,
  "day": 11289,
  "Ġdatab": 11290,
  "Ġdetectives": 11291,
  "alach": 11292,
  "Ġbumper": 11293,
  "oproject": 11294,
  "oint": 11295,
  "inator": 11296,
  "Ġdf": 11297,
  "Ġini": 11298,
  "Ġtup": 11299,
  "Ġfancy": 11300,
  "stream": 11301,
  "Ġstream": 11302,
  "optim": 11303,
  "imum": 11304,
  "insn": 11305,
  "Ġbanks": 11306,
  "crete": 11307,
  "Ġclaims": 11308,
  "Ġpassion": 11309,
  "item": 11310,
  "horn": 11311,
  "tone": 11312,
  "Ġbribery": 11313,
  "Ġberth": 11314,
  "olet": 11315,
  "altern": 11316,
  "Ġmold": 11317,
  "enario": 11318,
  "Ġabb": 11319,
  "Ġdonors": 11320,
  "ensus": 11321,
  "imax": 11322,
  "Ġessen": 11323,
  "nst": 11324,
  "tbl": 11325,
  "Ġrevers": 11326,
  "Ġoverall": 11327,
  "awaii": 11328,
  "amina": 11329,
  "olina": 11330,
  "sand": 11331,
  "eltas": 11332,
  "perm": 11333,
  "Ġfreedom": 11334,
  "Ġtes": 11335,
  "Ġakka": 11336,
  "Ġtoys": 11337,
  "etermine": 11338,
  "Ġapro": 11339,
  "Ġtwink": 11340,
  "Ġdread": 11341,
  "locks": 11342,
  "wy": 11343,
  "ogle": 11344,
  "icut": 11345,
  "vard": 11346,
  "Ġcommon": 11347,
  "Ġcouple": 11348,
  "inement": 11349,
  "Ġcette": 11350,
  "Ġtravail": 11351,
  "Ġborne": 11352,
  "upert": 11353,
  "Ġreson": 11354,
  "Ġdrill": 11355,
  "noon": 11356,
  "Ġballo": 11357,
  "Ġdato": 11358,
  "Ġfolklore": 11359,
  "agram": 11360,
  "Ġjewel": 11361,
  "Ġlear": 11362,
  "camera": 11363,
  "Ġprepar": 11364,
  "utsche": 11365,
  "Ġepidemi": 11366,
  "mx": 11367,
  "emplo": 11368,
  "Ġresta": 11369,
  "Ġtimer": 11370,
  "rone": 11371,
  "Ġnors": 11372,
  "oa": 11373,
  "Ġincom": 11374,
  "Ġunic": 11375,
  "Ġimmun": 11376,
  "capt": 11377,
  "genesis": 11378,
  "Ġpig": 11379,
  "Ġparanoia": 11380,
  "etheus": 11381,
  "Ġpd": 11382,
  "Ġterritory": 11383,
  "annah": 11384,
  "Ġjoints": 11385,
  "Ġlegend": 11386,
  "Ġkidn": 11387,
  "adelphia": 11388,
  "Ġicon": 11389,
  "umd": 11390,
  "every": 11391,
  "itty": 11392,
  "Ġpatt": 11393,
  "clo": 11394,
  "iben": 11395,
  "Ġautop": 11396,
  "Ġsuite": 11397,
  "Ġconsultants": 11398,
  "marsh": 11399,
  "iquer": 11400,
  "ibar": 11401,
  "dot": 11402,
  "Ġextravagant": 11403,
  "Ġerupt": 11404,
  "Ġbrav": 11405,
  "ocrat": 11406,
  "kont": 11407,
  "Ġcatering": 11408,
  "guid": 11409,
  "erro": 11410,
  "idge": 11411,
  "upiter": 11412,
  "wl": 11413,
  "dda": 11414,
  "iero": 11415,
  "ingham": 11416,
  "unga": 11417,
  "uko": 11418,
  "Ġsled": 11419,
  "Ġtink": 11420,
  "control": 11421,
  "dent": 11422,
  "eners": 11423,
  "ensing": 11424,
  "Ġheadlines": 11425,
  "gov": 11426,
  "inia": 11427,
  "Ġnike": 11428,
  "Ġnorthwest": 11429,
  "Ġcorp": 11430,
  "achusetts": 11431,
  "owski": 11432,
  "gomery": 11433,
  "awl": 11434,
  "Ġhg": 11435,
  "rett": 11436,
  "Ġchin": 11437,
  "olta": 11438,
  "Ġbabe": 11439,
  "Ġjacket": 11440,
  "mode": 11441,
  "Ġliberation": 11442,
  "Ġsodom": 11443,
  "Ġgender": 11444,
  "elim": 11445,
  "Ġfell": 11446,
  "jem": 11447,
  "Ġbarrier": 11448,
  "Ġartists": 11449,
  "andes": 11450,
  "ells": 11451,
  "trand": 11452,
  "Ġbug": 11453,
  "asar": 11454,
  "usan": 11455,
  "Ġthen": 11456,
  "coat": 11457,
  "Ġgrain": 11458,
  "sou": 11459,
  "brook": 11460,
  "Ġroller": 11461,
  "Ġspecifier": 11462,
  "Ġpallet": 11463,
  "Ġjpeg": 11464,
  "Ġrating": 11465,
  "bug": 11466,
  "aq": 11467,
  "aded": 11468,
  "Ġemails": 11469,
  "Ġbuddy": 11470,
  "Ġnegro": 11471,
  "Ġft": 11472,
  "Ġcasting": 11473,
  "Ġstars": 11474,
  "Ġwash": 11475,
  "98": 11476,
  "Ġio": 11477,
  "Ġfug": 11478,
  "Ġyouth": 11479,
  "Ġked": 11480,
  "Ġkommer": 11481,
  "Ġfir": 11482,
  "dist": 11483,
  "Ġya": 11484,
  "Ġputt": 11485,
  "odont": 11486,
  "Ġjumper": 11487,
  "Ġhuz": 11488,
  "Ġcb": 11489,
  "uges": 11490,
  "Ġpriority": 11491,
  "Ġspend": 11492,
  "Ġbanner": 11493,
  "Ġvista": 11494,
  "hausen": 11495,
  "apot": 11496,
  "Ġstraight": 11497,
  "Ġsynt": 11498,
  "ensa": 11499,
  "Ġpossible": 11500,
  "Ġkata": 11501,
  "Ġloops": 11502,
  "Ġrelease": 11503,
  "Ġunique": 11504,
  "clare": 11505,
  "exact": 11506,
  "Ġabsent": 11507,
  "Ġhonda": 11508,
  "enin": 11509,
  "nw": 11510,
  "dorf": 11511,
  "vide": 11512,
  "para": 11513,
  "usp": 11514,
  "asket": 11515,
  "ilip": 11516,
  "Ġmud": 11517,
  "Ġcarne": 11518,
  "what": 11519,
  "pur": 11520,
  "Ġsurprises": 11521,
  "hk": 11522,
  "Ġlimp": 11523,
  "ymb": 11524,
  "remen": 11525,
  "Ġomp": 11526,
  "ocop": 11527,
  "regor": 11528,
  "Ġtrust": 11529,
  "lando": 11530,
  "Ġtg": 11531,
  "Ġflower": 11532,
  "Ġfie": 11533,
  "Ġperf": 11534,
  "kish": 11535,
  "Ġface": 11536,
  "Ġheart": 11537,
  "Ġmey": 11538,
  "Ġani": 11539,
  "Ġfp": 11540,
  "Ġdealer": 11541,
  "Ġsales": 11542,
  "Ġconcerns": 11543,
  "fy": 11544,
  "Ġrz": 11545,
  "Ġck": 11546,
  "Ġknock": 11547,
  "Ġcivic": 11548,
  "nl": 11549,
  "zf": 11550,
  "Ġmercury": 11551,
  "tok": 11552,
  "Ġnights": 11553,
  "whel": 11554,
  "manuel": 11555,
  "Ġbranch": 11556,
  "grass": 11557,
  "Ġwings": 11558,
  "Ġgg": 11559,
  "Ġhammer": 11560,
  "Ġmeis": 11561,
  "Ġvim": 11562,
  "Ġnip": 11563,
  "Ġpubs": 11564,
  "Ġyas": 11565,
  "Ġcriminals": 11566,
  "Ġcater": 11567,
  "clean": 11568,
  "Ġplate": 11569,
  "Ġagainst": 11570,
  "Ġfry": 11571,
  "cars": 11572,
  "Ġhelpers": 11573,
  "Ġphot": 11574,
  "poll": 11575,
  "ahr": 11576,
  "aty": 11577,
  "det": 11578,
  "olley": 11579,
  "Ġemiss": 11580,
  "atr": 11581,
  "life": 11582,
  "nation": 11583,
  "zm": 11584,
  "zeug": 11585,
  "Ġship": 11586,
  "Ġdeath": 11587,
  "Ġstatements": 11588,
  "Ġbaud": 11589,
  "ovi": 11590,
  "Ġcorpor": 11591,
  "orne": 11592,
  "Ġglitter": 11593,
  "rats": 11594,
  "Ġmalt": 11595,
  "caps": 11596,
  "ikon": 11597,
  "Ġpuerto": 11598,
  "207": 11599,
  "aterial": 11600,
  "Ġonce": 11601,
  "ists": 11602,
  "Ġissues": 11603,
  "Ġprimo": 11604,
  "Ġdiscipl": 11605,
  "pret": 11606,
  "Ġgrant": 11607,
  "auss": 11608,
  "active": 11609,
  "atters": 11610,
  "quipe": 11611,
  "pic": 11612,
  "Ġirre": 11613,
  "Ġpancre": 11614,
  "errick": 11615,
  "ilos": 11616,
  "Ġave": 11617,
  "Ġaux": 11618,
  "Ġsliding": 11619,
  "Ġround": 11620,
  "consume": 11621,
  "Ġquar": 11622,
  "Ġcele": 11623,
  "side": 11624,
  "Ġlemma": 11625,
  "Ġappeal": 11626,
  "Ġinfant": 11627,
  "Ġlettre": 11628,
  "Ġdamage": 11629,
  "hab": 11630,
  "ebra": 11631,
  "Ġmagnesium": 11632,
  "ftp": 11633,
  "Ġdelle": 11634,
  "Ġclusters": 11635,
  "Ġinvit": 11636,
  "usal": 11637,
  "chine": 11638,
  "sti": 11639,
  "Ġdracon": 11640,
  "Ġregress": 11641,
  "Ġcorrel": 11642,
  "aso": 11643,
  "www": 11644,
  "cycle": 11645,
  "undo": 11646,
  "msp": 11647,
  "Ġnuts": 11648,
  "avec": 11649,
  "scan": 11650,
  "ijing": 11651,
  "obox": 11652,
  "Ġcontroller": 11653,
  "Ġedil": 11654,
  "ragment": 11655,
  "idon": 11656,
  "Ġtantal": 11657,
  "permanent": 11658,
  "cro": 11659,
  "bags": 11660,
  "Ġcollectors": 11661,
  "Ġbapt": 11662,
  "aktion": 11663,
  "Ġeinf": 11664,
  "Ġparadigm": 11665,
  "read": 11666,
  "Ġtalking": 11667,
  "Ġheads": 11668,
  "sky": 11669,
  "ochen": 11670,
  "self": 11671,
  "Ġolm": 11672,
  "Ġrelation": 11673,
  "iw": 11674,
  "Ġdeco": 11675,
  "Ġprovincial": 11676,
  "Ġpull": 11677,
  "zas": 11678,
  "Ġconverse": 11679,
  "filter": 11680,
  "amma": 11681,
  "Ġhs": 11682,
  "Ġbehavior": 11683,
  "Ġbowl": 11684,
  "Ġsham": 11685,
  "Ġbeware": 11686,
  "mallow": 11687,
  "fax": 11688,
  "acro": 11689,
  "Ġgarden": 11690,
  "emek": 11691,
  "gis": 11692,
  "Ġgerm": 11693,
  "Ġrender": 11694,
  "heck": 11695,
  "Ġportfolio": 11696,
  "Ġfats": 11697,
  "ensburg": 11698,
  "Ġcrow": 11699,
  "inded": 11700,
  "Ġreprodu": 11701,
  "Ġaerobic": 11702,
  "Ġguide": 11703,
  "Ġcrab": 11704,
  "Ġbulletin": 11705,
  "Ġdrainage": 11706,
  "Ġsang": 11707,
  "ockets": 11708,
  "asics": 11709,
  "ieber": 11710,
  "Ġzenith": 11711,
  "anking": 11712,
  "Ġslide": 11713,
  "Ġmej": 11714,
  "Ġcopp": 11715,
  "Ġmote": 11716,
  "eree": 11717,
  "ibu": 11718,
  "Ġtriple": 11719,
  "Ġpainted": 11720,
  "Ġillusions": 11721,
  "Ġindicator": 11722,
  "pee": 11723,
  "eyer": 11724,
  "Ġtrois": 11725,
  "ensemble": 11726,
  "Ġmarginal": 11727,
  "ologist": 11728,
  "Ġburns": 11729,
  "Ġduplic": 11730,
  "Ġbegun": 11731,
  "Ġatheist": 11732,
  "Ġweed": 11733,
  "Ġkill": 11734,
  "Ġhitch": 11735,
  "Ġborrowed": 11736,
  "perfect": 11737,
  "Ġfighter": 11738,
  "Ġsill": 11739,
  "Ġxo": 11740,
  "ycler": 11741,
  "soft": 11742,
  "Ġbuz": 11743,
  "encil": 11744,
  "Ġquelle": 11745,
  "Ġthy": 11746,
  "Ġdesp": 11747,
  "inci": 11748,
  "Ġconfident": 11749,
  "Ġresume": 11750,
  "Ġsos": 11751,
  "Ġwhats": 11752,
  "Ġbarrage": 11753,
  "Ġopponent": 11754,
  "ushi": 11755,
  "Ġcage": 11756,
  "Ġxi": 11757,
  "Ġscor": 11758,
  "Ġpeg": 11759,
  "Ġhidden": 11760,
  "Ġtac": 11761,
  "Ġdred": 11762,
  "gate": 11763,
  "swagen": 11764,
  "Ġhooks": 11765,
  "pirit": 11766,
  "Ġalliance": 11767,
  "staff": 11768,
  "ataka": 11769,
  "Ġkell": 11770,
  "Ġporte": 11771,
  "Ġust": 11772,
  "ropol": 11773,
  "Ġcounty": 11774,
  "leton": 11775,
  "pain": 11776,
  "imps": 11777,
  "eria": 11778,
  "cle": 11779,
  "Ġjasmine": 11780,
  "atto": 11781,
  "elled": 11782,
  "Ġpropos": 11783,
  "dle": 11784,
  "lace": 11785,
  "Ġmono": 11786,
  "mw": 11787,
  "Ġfloors": 11788,
  "Ġnur": 11789,
  "Ġsingers": 11790,
  "sat": 11791,
  "Ġcet": 11792,
  "Ġbefore": 11793,
  "gles": 11794,
  "Ġstir": 11795,
  "psi": 11796,
  "Ġnovo": 11797,
  "Ġivory": 11798,
  "Ġheir": 11799,
  "Ġmusicians": 11800,
  "Ġcollector": 11801,
  "efficient": 11802,
  "ails": 11803,
  "xb": 11804,
  "Ġefficiency": 11805,
  "enal": 11806,
  "Ġreint": 11807,
[...]
